#include "magic_wand_model_data.h"


// We need to keep the data array aligned on some architectures.

#ifdef __has_attribute

#define HAVE_ATTRIBUTE(x) __has_attribute(x)

#else

#define HAVE_ATTRIBUTE(x) 0

#endif

#if HAVE_ATTRIBUTE(aligned) || (defined(__GNUC__) && !defined(__clang__))

#define DATA_ALIGN_ATTRIBUTE __attribute__((aligned(4)))

#else

#define DATA_ALIGN_ATTRIBUTE

#endif


const unsigned char g_magic_wand_model_data[] DATA_ALIGN_ATTRIBUTE = {

  // Paste the data of the char array in `src/model.cc` here
  0x08, 0x00, 0x00, 0x00, 0x54, 0x46, 0x4c, 0x33, 0x62, 0xff, 0xff, 0xff,
  0x03, 0x00, 0x00, 0x00, 0x10, 0x00, 0x00, 0x00, 0x24, 0x00, 0x00, 0x00,
  0x78, 0x00, 0x00, 0x00, 0x24, 0x00, 0x00, 0x00, 0x05, 0x00, 0x00, 0x00,
  0x78, 0x05, 0x00, 0x00, 0xb0, 0x04, 0x00, 0x00, 0xe0, 0x02, 0x00, 0x00,
  0x60, 0x02, 0x00, 0x00, 0x54, 0x01, 0x00, 0x00, 0x01, 0x00, 0x00, 0x00,
  0x78, 0x00, 0x00, 0x00, 0x13, 0x00, 0x00, 0x00, 0xd4, 0x2f, 0x00, 0x00,
  0xd0, 0x2f, 0x00, 0x00, 0xdc, 0x2e, 0x00, 0x00, 0x68, 0x2e, 0x00, 0x00,
  0xfc, 0x2d, 0x00, 0x00, 0xac, 0x11, 0x00, 0x00, 0x98, 0x10, 0x00, 0x00,
  0xbc, 0x0e, 0x00, 0x00, 0x60, 0x06, 0x00, 0x00, 0xfc, 0x05, 0x00, 0x00,
  0x78, 0x05, 0x00, 0x00, 0xa8, 0x2f, 0x00, 0x00, 0xa4, 0x2f, 0x00, 0x00,
  0xa0, 0x2f, 0x00, 0x00, 0x9c, 0x2f, 0x00, 0x00, 0x98, 0x2f, 0x00, 0x00,
  0x94, 0x2f, 0x00, 0x00, 0x90, 0x2f, 0x00, 0x00, 0x8c, 0x2f, 0x00, 0x00,
  0x0f, 0x00, 0x00, 0x00, 0x4d, 0x4c, 0x49, 0x52, 0x20, 0x43, 0x6f, 0x6e,
  0x76, 0x65, 0x72, 0x74, 0x65, 0x64, 0x2e, 0x00, 0x00, 0x00, 0x0e, 0x00,
  0x18, 0x00, 0x04, 0x00, 0x08, 0x00, 0x0c, 0x00, 0x10, 0x00, 0x14, 0x00,
  0x0e, 0x00, 0x00, 0x00, 0x14, 0x00, 0x00, 0x00, 0x5c, 0x00, 0x00, 0x00,
  0x60, 0x00, 0x00, 0x00, 0x64, 0x00, 0x00, 0x00, 0x84, 0x00, 0x00, 0x00,
  0x12, 0x00, 0x00, 0x00, 0x04, 0x2f, 0x00, 0x00, 0xa0, 0x2e, 0x00, 0x00,
  0xf8, 0x2d, 0x00, 0x00, 0x98, 0x2d, 0x00, 0x00, 0x30, 0x2d, 0x00, 0x00,
  0xdc, 0x10, 0x00, 0x00, 0xc0, 0x0f, 0x00, 0x00, 0xe4, 0x0d, 0x00, 0x00,
  0xa0, 0x05, 0x00, 0x00, 0x3c, 0x05, 0x00, 0x00, 0xb0, 0x04, 0x00, 0x00,
  0xe8, 0x03, 0x00, 0x00, 0x38, 0x03, 0x00, 0x00, 0xa4, 0x02, 0x00, 0x00,
  0x10, 0x02, 0x00, 0x00, 0x90, 0x01, 0x00, 0x00, 0xfc, 0x00, 0x00, 0x00,
  0x80, 0x00, 0x00, 0x00, 0x01, 0x00, 0x00, 0x00, 0x00, 0x00, 0x00, 0x00,
  0x01, 0x00, 0x00, 0x00, 0x11, 0x00, 0x00, 0x00, 0x08, 0x00, 0x00, 0x00,
  0x1c, 0x04, 0x00, 0x00, 0x58, 0x03, 0x00, 0x00, 0xc8, 0x02, 0x00, 0x00,
  0x24, 0x02, 0x00, 0x00, 0xac, 0x01, 0x00, 0x00, 0x10, 0x01, 0x00, 0x00,
  0x94, 0x00, 0x00, 0x00, 0x10, 0x00, 0x00, 0x00, 0x04, 0x00, 0x00, 0x00,
  0x6d, 0x61, 0x69, 0x6e, 0x00, 0x00, 0x00, 0x00, 0x8e, 0xff, 0xff, 0xff,
  0x00, 0x00, 0x00, 0x09, 0x04, 0x00, 0x00, 0x00, 0x1c, 0x00, 0x00, 0x00,
  0x10, 0x00, 0x00, 0x00, 0x04, 0x00, 0x00, 0x00, 0x4e, 0xd2, 0xff, 0xff,
  0x00, 0x00, 0x80, 0x3f, 0x01, 0x00, 0x00, 0x00, 0x11, 0x00, 0x00, 0x00,
  0x01, 0x00, 0x00, 0x00, 0x10, 0x00, 0x00, 0x00, 0xf6, 0xfb, 0xff, 0xff,
  0x00, 0x00, 0x00, 0x19, 0x01, 0x00, 0x00, 0x00, 0xce, 0xd1, 0xff, 0xff,
  0x10, 0x00, 0x00, 0x00, 0x12, 0x00, 0x00, 0x00, 0x14, 0x00, 0x00, 0x00,
  0x20, 0x00, 0x00, 0x00, 0x02, 0x00, 0x00, 0x00, 0x01, 0x00, 0x00, 0x00,
  0x03, 0x00, 0x00, 0x00, 0x08, 0x00, 0x00, 0x00, 0x49, 0x64, 0x65, 0x6e,
  0x74, 0x69, 0x74, 0x79, 0x00, 0x00, 0x00, 0x00, 0x08, 0xd2, 0xff, 0xff,
  0x00, 0x00, 0x0e, 0x00, 0x18, 0x00, 0x08, 0x00, 0x0c, 0x00, 0x10, 0x00,
  0x07, 0x00, 0x14, 0x00, 0x0e, 0x00, 0x00, 0x00, 0x00, 0x00, 0x00, 0x08,
  0x03, 0x00, 0x00, 0x00, 0x18, 0x00, 0x00, 0x00, 0x0c, 0x00, 0x00, 0x00,
  0x04, 0x00, 0x00, 0x00, 0xdc, 0xd1, 0xff, 0xff, 0x01, 0x00, 0x00, 0x00,
  0x10, 0x00, 0x00, 0x00, 0x03, 0x00, 0x00, 0x00, 0x0f, 0x00, 0x00, 0x00,
  0x05, 0x00, 0x00, 0x00, 0x02, 0x00, 0x00, 0x00, 0x46, 0xd2, 0xff, 0xff,
  0x10, 0x00, 0x00, 0x00, 0x11, 0x00, 0x00, 0x00, 0x14, 0x00, 0x00, 0x00,
  0x30, 0x00, 0x00, 0x00, 0x02, 0x00, 0x00, 0x00, 0x01, 0x00, 0x00, 0x00,
  0x03, 0x00, 0x00, 0x00, 0x1a, 0x00, 0x00, 0x00, 0x73, 0x65, 0x71, 0x75,
  0x65, 0x6e, 0x74, 0x69, 0x61, 0x6c, 0x2f, 0x64, 0x65, 0x6e, 0x73, 0x65,
  0x5f, 0x31, 0x2f, 0x42, 0x69, 0x61, 0x73, 0x41, 0x64, 0x64, 0x00, 0x00,
  0x38, 0xd2, 0xff, 0xff, 0xd6, 0xfd, 0xff, 0xff, 0x00, 0x00, 0x00, 0x08,
  0x03, 0x00, 0x00, 0x00, 0x24, 0x00, 0x00, 0x00, 0x18, 0x00, 0x00, 0x00,
  0x0c, 0x00, 0x00, 0x00, 0x00, 0x00, 0x06, 0x00, 0x08, 0x00, 0x07, 0x00,
  0x06, 0x00, 0x00, 0x00, 0x00, 0x00, 0x00, 0x01, 0x01, 0x00, 0x00, 0x00,
  0x0f, 0x00, 0x00, 0x00, 0x03, 0x00, 0x00, 0x00, 0x0e, 0x00, 0x00, 0x00,
  0x04, 0x00, 0x00, 0x00, 0x01, 0x00, 0x00, 0x00, 0xfe, 0xfc, 0xff, 0xff,
  0x00, 0x00, 0x00, 0x09, 0x01, 0x00, 0x00, 0x00, 0xd6, 0xd2, 0xff, 0xff,
  0x10, 0x00, 0x00, 0x00, 0x10, 0x00, 0x00, 0x00, 0x14, 0x00, 0x00, 0x00,
  0x2c, 0x00, 0x00, 0x00, 0x02, 0x00, 0x00, 0x00, 0x01, 0x00, 0x00, 0x00,
  0x10, 0x00, 0x00, 0x00, 0x15, 0x00, 0x00, 0x00, 0x73, 0x65, 0x71, 0x75,
  0x65, 0x6e, 0x74, 0x69, 0x61, 0x6c, 0x2f, 0x64, 0x65, 0x6e, 0x73, 0x65,
  0x2f, 0x52, 0x65, 0x6c, 0x75, 0x00, 0x00, 0x00, 0x1c, 0xd3, 0xff, 0xff,
  0x00, 0x00, 0x0a, 0x00, 0x10, 0x00, 0x04, 0x00, 0x08, 0x00, 0x0c, 0x00,
  0x0a, 0x00, 0x00, 0x00, 0x02, 0x00, 0x00, 0x00, 0x10, 0x00, 0x00, 0x00,
  0x04, 0x00, 0x00, 0x00, 0x01, 0x00, 0x00, 0x00, 0x0e, 0x00, 0x00, 0x00,
  0x02, 0x00, 0x00, 0x00, 0x0d, 0x00, 0x00, 0x00, 0x03, 0x00, 0x00, 0x00,
  0x7a, 0xfd, 0xff, 0xff, 0x00, 0x00, 0x00, 0x16, 0x01, 0x00, 0x00, 0x00,
  0x52, 0xd3, 0xff, 0xff, 0x10, 0x00, 0x00, 0x00, 0x0f, 0x00, 0x00, 0x00,
  0x14, 0x00, 0x00, 0x00, 0x30, 0x00, 0x00, 0x00, 0x02, 0x00, 0x00, 0x00,
  0x01, 0x00, 0x00, 0x00, 0x70, 0x00, 0x00, 0x00, 0x1a, 0x00, 0x00, 0x00,
  0x73, 0x65, 0x71, 0x75, 0x65, 0x6e, 0x74, 0x69, 0x61, 0x6c, 0x2f, 0x66,
  0x6c, 0x61, 0x74, 0x74, 0x65, 0x6e, 0x2f, 0x52, 0x65, 0x73, 0x68, 0x61,
  0x70, 0x65, 0x00, 0x00, 0x44, 0xd3, 0xff, 0xff, 0xe2, 0xfe, 0xff, 0xff,
  0x00, 0x00, 0x00, 0x05, 0x01, 0x00, 0x00, 0x00, 0x38, 0x00, 0x00, 0x00,
  0x2c, 0x00, 0x00, 0x00, 0x14, 0x00, 0x00, 0x00, 0x00, 0x00, 0x0e, 0x00,
  0x14, 0x00, 0x00, 0x00, 0x10, 0x00, 0x0c, 0x00, 0x08, 0x00, 0x04, 0x00,
  0x0e, 0x00, 0x00, 0x00, 0x03, 0x00, 0x00, 0x00, 0x01, 0x00, 0x00, 0x00,
  0x03, 0x00, 0x00, 0x00, 0x01, 0x00, 0x00, 0x00, 0x01, 0x00, 0x00, 0x00,
  0x0d, 0x00, 0x00, 0x00, 0x01, 0x00, 0x00, 0x00, 0x0c, 0x00, 0x00, 0x00,
  0xe2, 0xd3, 0xff, 0xff, 0x10, 0x00, 0x00, 0x00, 0x0e, 0x00, 0x00, 0x00,
  0x1c, 0x00, 0x00, 0x00, 0x40, 0x00, 0x00, 0x00, 0x04, 0x00, 0x00, 0x00,
  0x01, 0x00, 0x00, 0x00, 0x07, 0x00, 0x00, 0x00, 0x01, 0x00, 0x00, 0x00,
  0x10, 0x00, 0x00, 0x00, 0x22, 0x00, 0x00, 0x00, 0x73, 0x65, 0x71, 0x75,
  0x65, 0x6e, 0x74, 0x69, 0x61, 0x6c, 0x2f, 0x6d, 0x61, 0x78, 0x5f, 0x70,
  0x6f, 0x6f, 0x6c, 0x69, 0x6e, 0x67, 0x32, 0x64, 0x5f, 0x31, 0x2f, 0x4d,
  0x61, 0x78, 0x50, 0x6f, 0x6f, 0x6c, 0x00, 0x00, 0xe4, 0xd3, 0xff, 0xff,
  0xc2, 0xfe, 0xff, 0xff, 0x00, 0x00, 0x00, 0x01, 0x24, 0x00, 0x00, 0x00,
  0x18, 0x00, 0x00, 0x00, 0x04, 0x00, 0x00, 0x00, 0xb4, 0xfe, 0xff, 0xff,
  0x01, 0x00, 0x00, 0x00, 0x01, 0x00, 0x00, 0x00, 0x00, 0x00, 0x00, 0x01,
  0x01, 0x00, 0x00, 0x00, 0x0c, 0x00, 0x00, 0x00, 0x03, 0x00, 0x00, 0x00,
  0x0b, 0x00, 0x00, 0x00, 0x07, 0x00, 0x00, 0x00, 0x09, 0x00, 0x00, 0x00,
  0x72, 0xd4, 0xff, 0xff, 0x10, 0x00, 0x00, 0x00, 0x0d, 0x00, 0x00, 0x00,
  0x1c, 0x00, 0x00, 0x00, 0x2c, 0x00, 0x00, 0x00, 0x04, 0x00, 0x00, 0x00,
  0x01, 0x00, 0x00, 0x00, 0x15, 0x00, 0x00, 0x00, 0x01, 0x00, 0x00, 0x00,
  0x10, 0x00, 0x00, 0x00, 0x0c, 0x00, 0x00, 0x00, 0x74, 0x66, 0x6c, 0x2e,
  0x63, 0x6f, 0x6e, 0x76, 0x5f, 0x32, 0x64, 0x31, 0x00, 0x00, 0x00, 0x00,
  0xb8, 0xd4, 0xff, 0xff, 0x00, 0x00, 0x0e, 0x00, 0x1a, 0x00, 0x08, 0x00,
  0x0c, 0x00, 0x10, 0x00, 0x07, 0x00, 0x14, 0x00, 0x0e, 0x00, 0x00, 0x00,
  0x00, 0x00, 0x00, 0x05, 0x01, 0x00, 0x00, 0x00, 0x3c, 0x00, 0x00, 0x00,
  0x30, 0x00, 0x00, 0x00, 0x14, 0x00, 0x00, 0x00, 0x00, 0x00, 0x0e, 0x00,
  0x18, 0x00, 0x17, 0x00, 0x10, 0x00, 0x0c, 0x00, 0x08, 0x00, 0x04, 0x00,
  0x0e, 0x00, 0x00, 0x00, 0x03, 0x00, 0x00, 0x00, 0x03, 0x00, 0x00, 0x00,
  0x03, 0x00, 0x00, 0x00, 0x03, 0x00, 0x00, 0x00, 0x00, 0x00, 0x00, 0x01,
  0x01, 0x00, 0x00, 0x00, 0x0b, 0x00, 0x00, 0x00, 0x01, 0x00, 0x00, 0x00,
  0x0a, 0x00, 0x00, 0x00, 0x46, 0xff, 0xff, 0xff, 0x00, 0x00, 0x00, 0x11,
  0x01, 0x00, 0x00, 0x00, 0x1e, 0xd5, 0xff, 0xff, 0x10, 0x00, 0x00, 0x00,
  0x0c, 0x00, 0x00, 0x00, 0x1c, 0x00, 0x00, 0x00, 0x40, 0x00, 0x00, 0x00,
  0x04, 0x00, 0x00, 0x00, 0x01, 0x00, 0x00, 0x00, 0x15, 0x00, 0x00, 0x00,
  0x01, 0x00, 0x00, 0x00, 0x08, 0x00, 0x00, 0x00, 0x20, 0x00, 0x00, 0x00,
  0x73, 0x65, 0x71, 0x75, 0x65, 0x6e, 0x74, 0x69, 0x61, 0x6c, 0x2f, 0x6d,
  0x61, 0x78, 0x5f, 0x70, 0x6f, 0x6f, 0x6c, 0x69, 0x6e, 0x67, 0x32, 0x64,
  0x2f, 0x4d, 0x61, 0x78, 0x50, 0x6f, 0x6f, 0x6c, 0x00, 0x00, 0x00, 0x00,
  0x78, 0xd5, 0xff, 0xff, 0x00, 0x00, 0x0e, 0x00, 0x14, 0x00, 0x00, 0x00,
  0x08, 0x00, 0x0c, 0x00, 0x07, 0x00, 0x10, 0x00, 0x0e, 0x00, 0x00, 0x00,
  0x00, 0x00, 0x00, 0x01, 0x30, 0x00, 0x00, 0x00, 0x24, 0x00, 0x00, 0x00,
  0x10, 0x00, 0x00, 0x00, 0x0c, 0x00, 0x10, 0x00, 0x00, 0x00, 0x04, 0x00,
  0x08, 0x00, 0x0f, 0x00, 0x0c, 0x00, 0x00, 0x00, 0x01, 0x00, 0x00, 0x00,
  0x01, 0x00, 0x00, 0x00, 0x00, 0x00, 0x00, 0x01, 0x01, 0x00, 0x00, 0x00,
  0x0a, 0x00, 0x00, 0x00, 0x03, 0x00, 0x00, 0x00, 0x00, 0x00, 0x00, 0x00,
  0x06, 0x00, 0x00, 0x00, 0x08, 0x00, 0x00, 0x00, 0x00, 0x00, 0x0a, 0x00,
  0x0c, 0x00, 0x07, 0x00, 0x00, 0x00, 0x08, 0x00, 0x0a, 0x00, 0x00, 0x00,
  0x00, 0x00, 0x00, 0x03, 0x01, 0x00, 0x00, 0x00, 0xe2, 0xd5, 0xff, 0xff,
  0x10, 0x00, 0x00, 0x00, 0x0b, 0x00, 0x00, 0x00, 0x1c, 0x00, 0x00, 0x00,
  0x28, 0x00, 0x00, 0x00, 0x04, 0x00, 0x00, 0x00, 0x01, 0x00, 0x00, 0x00,
  0x40, 0x00, 0x00, 0x00, 0x03, 0x00, 0x00, 0x00, 0x08, 0x00, 0x00, 0x00,
  0x0b, 0x00, 0x00, 0x00, 0x74, 0x66, 0x6c, 0x2e, 0x63, 0x6f, 0x6e, 0x76,
  0x5f, 0x32, 0x64, 0x00, 0xcc, 0xd5, 0xff, 0xff, 0xc2, 0xd6, 0xff, 0xff,
  0x04, 0x00, 0x00, 0x00, 0x40, 0x00, 0x00, 0x00, 0xb4, 0x2b, 0x0f, 0xc0,
  0xe4, 0xa9, 0x23, 0x40, 0x64, 0x00, 0x05, 0xc0, 0x67, 0x35, 0xe4, 0x3e,
  0x63, 0xdb, 0x1f, 0xc0, 0xf2, 0x39, 0xaf, 0x3f, 0xa3, 0x1c, 0x4a, 0x40,
  0x06, 0x4f, 0x5b, 0xbf, 0xdf, 0x2e, 0x00, 0xc0, 0x48, 0x2a, 0x14, 0xc0,
  0xbe, 0x26, 0xbc, 0x3f, 0x3f, 0xda, 0x04, 0xbf, 0x9c, 0x3b, 0x7f, 0x40,
  0xa3, 0xab, 0x95, 0x3f, 0x8a, 0xd8, 0xe5, 0x3f, 0x79, 0xab, 0x16, 0xc0,
  0x6a, 0xd6, 0xff, 0xff, 0x10, 0x00, 0x00, 0x00, 0x0a, 0x00, 0x00, 0x00,
  0x10, 0x00, 0x00, 0x00, 0x20, 0x00, 0x00, 0x00, 0x01, 0x00, 0x00, 0x00,
  0x10, 0x00, 0x00, 0x00, 0x0d, 0x00, 0x00, 0x00, 0x73, 0x74, 0x64, 0x2e,
  0x63, 0x6f, 0x6e, 0x73, 0x74, 0x61, 0x6e, 0x74, 0x31, 0x00, 0x00, 0x00,
  0x4c, 0xd6, 0xff, 0xff, 0x42, 0xd7, 0xff, 0xff, 0x04, 0x00, 0x00, 0x00,
  0x20, 0x00, 0x00, 0x00, 0x8b, 0x13, 0xf4, 0xbf, 0x7b, 0x95, 0xbd, 0x3f,
  0x77, 0x71, 0x9e, 0x3f, 0xba, 0xc8, 0xbf, 0xbd, 0x91, 0x71, 0xb3, 0xbd,
  0x1d, 0xe4, 0x1a, 0xbf, 0x62, 0xb4, 0xfb, 0xbf, 0x01, 0xa3, 0xf9, 0xbf,
  0xca, 0xd6, 0xff, 0xff, 0x10, 0x00, 0x00, 0x00, 0x09, 0x00, 0x00, 0x00,
  0x10, 0x00, 0x00, 0x00, 0x20, 0x00, 0x00, 0x00, 0x01, 0x00, 0x00, 0x00,
  0x08, 0x00, 0x00, 0x00, 0x0c, 0x00, 0x00, 0x00, 0x73, 0x74, 0x64, 0x2e,
  0x63, 0x6f, 0x6e, 0x73, 0x74, 0x61, 0x6e, 0x74, 0x00, 0x00, 0x00, 0x00,
  0xac, 0xd6, 0xff, 0xff, 0xa2, 0xd7, 0xff, 0xff, 0x04, 0x00, 0x00, 0x00,
  0x00, 0x08, 0x00, 0x00, 0xaa, 0x7a, 0x04, 0xbe, 0xd0, 0x81, 0x44, 0x3e,
  0xcf, 0xc1, 0x32, 0x3e, 0xdf, 0xfb, 0x9e, 0xbe, 0x24, 0xa1, 0x21, 0x3e,
  0xe3, 0x9e, 0x83, 0xbd, 0x67, 0x98, 0x2f, 0x3f, 0x36, 0x07, 0x3b, 0xbd,
  0x46, 0xc3, 0x11, 0x3d, 0x4a, 0x3e, 0x9e, 0x3c, 0xe5, 0x12, 0x95, 0xbe,
  0x93, 0x79, 0x0a, 0x3d, 0x4b, 0xbe, 0x7e, 0x3d, 0x24, 0x9c, 0x0d, 0xbd,
  0x8f, 0xfe, 0x28, 0xbf, 0x8c, 0xcc, 0x36, 0x3d, 0x89, 0x8a, 0xba, 0x3c,
  0x6f, 0xac, 0x89, 0xbe, 0xec, 0x58, 0x5a, 0xbf, 0x96, 0xd8, 0x21, 0xbd,
  0xf0, 0x14, 0xdb, 0x3e, 0xbc, 0x71, 0x04, 0x3e, 0xef, 0x3a, 0x0c, 0xbf,
  0xa8, 0x04, 0x57, 0x3e, 0xf2, 0x6f, 0xd1, 0xbd, 0xf4, 0x34, 0x68, 0xbe,
  0xa1, 0xd6, 0xca, 0xbe, 0x26, 0x0d, 0x6e, 0xbc, 0xfc, 0x0d, 0xce, 0xbe,
  0xdc, 0xe1, 0xc3, 0xbd, 0xbb, 0x44, 0xe1, 0xbe, 0x9b, 0x90, 0x80, 0x3e,
  0x20, 0x11, 0x44, 0xbd, 0xab, 0x8b, 0x25, 0xbe, 0x75, 0x62, 0x03, 0x3d,
  0x34, 0x1f, 0x3c, 0x3c, 0x07, 0xf1, 0x54, 0x3d, 0xae, 0x72, 0x92, 0x3d,
  0x93, 0x58, 0xef, 0xbc, 0xa9, 0x00, 0x2f, 0x3c, 0xf8, 0xa7, 0x78, 0xbc,
  0xe3, 0x6c, 0xa1, 0x3e, 0x17, 0x77, 0xea, 0x3d, 0xc8, 0x66, 0x7c, 0x3e,
  0xd8, 0x99, 0xb6, 0xbc, 0x7b, 0xea, 0xb8, 0x3c, 0x67, 0xa9, 0xa1, 0xbb,
  0x3a, 0x0b, 0xa7, 0xbd, 0xd6, 0x3f, 0xd1, 0x3d, 0x95, 0x95, 0xf9, 0x3d,
  0x4b, 0x60, 0xf4, 0x3d, 0x45, 0x79, 0x30, 0x3e, 0x84, 0xb4, 0xe0, 0xbd,
  0x5b, 0x66, 0x65, 0xbe, 0xb0, 0xe7, 0x07, 0xbd, 0x3f, 0xd6, 0x16, 0xbd,
  0x99, 0xcd, 0x92, 0x3d, 0x03, 0x1f, 0xa8, 0xbd, 0xe9, 0x80, 0x25, 0xbd,
  0x1a, 0x81, 0xc1, 0xbd, 0x0a, 0x17, 0x0f, 0xbc, 0x26, 0xd8, 0x79, 0x3e,
  0xcd, 0x8b, 0xe7, 0xba, 0x3e, 0xd1, 0x5d, 0xbd, 0xf0, 0xa8, 0x9d, 0xbd,
  0x8f, 0x53, 0x0f, 0xbe, 0xba, 0xf9, 0x36, 0xbe, 0xc7, 0x57, 0xf8, 0xbd,
  0xf7, 0x83, 0xed, 0xbe, 0x8c, 0xb6, 0xb2, 0xbe, 0xa1, 0xef, 0x23, 0xbe,
  0xaa, 0x8c, 0xd7, 0xbe, 0x71, 0x8b, 0x2c, 0xbd, 0x5d, 0xa2, 0xca, 0xbd,
  0xae, 0xee, 0x9c, 0xbd, 0xd7, 0xc0, 0xc9, 0xbd, 0xec, 0xa2, 0x8b, 0xbe,
  0x9e, 0x82, 0x7f, 0xbe, 0xd9, 0x84, 0x5f, 0xbd, 0x55, 0x13, 0xaf, 0xbd,
  0xec, 0xa5, 0x77, 0xbb, 0x5b, 0xb7, 0x04, 0xbd, 0x0b, 0x69, 0x1e, 0xbd,
  0xb9, 0x63, 0xc0, 0xbd, 0x85, 0xee, 0x61, 0xbe, 0x0a, 0xa4, 0x55, 0x3e,
  0xf7, 0xb2, 0x2c, 0xbd, 0x28, 0x87, 0x00, 0x3e, 0xee, 0x81, 0x11, 0x3d,
  0x11, 0x79, 0x5d, 0x3e, 0x97, 0x23, 0x0a, 0xbd, 0xa6, 0xd2, 0x05, 0x3e,
  0xa4, 0x69, 0x76, 0x3f, 0xbf, 0xa9, 0x9a, 0x3d, 0x82, 0xd6, 0xaf, 0x3e,
  0x8b, 0x10, 0xc0, 0x3d, 0xab, 0xe0, 0xad, 0xbe, 0x0a, 0x98, 0x54, 0xbd,
  0x90, 0xad, 0xe7, 0xbc, 0x78, 0xe3, 0x77, 0xbe, 0x5d, 0x1c, 0x7b, 0xbe,
  0x97, 0x12, 0x84, 0x3e, 0x53, 0x6f, 0x88, 0xbc, 0x24, 0x19, 0x23, 0x3d,
  0xd3, 0x22, 0x0d, 0xbe, 0x32, 0x63, 0xa0, 0xbd, 0xa9, 0xec, 0x10, 0x3e,
  0x15, 0x6d, 0x04, 0xbf, 0xb2, 0x50, 0x88, 0xbe, 0xf9, 0xa4, 0xc1, 0x3c,
  0x05, 0x5a, 0xf2, 0xbc, 0xa2, 0x45, 0x51, 0x3f, 0x77, 0x8c, 0xc7, 0xbd,
  0x10, 0x1e, 0x87, 0xbc, 0x1e, 0xa8, 0xd1, 0xbc, 0xb5, 0x9b, 0x49, 0xbe,
  0x2b, 0xfd, 0x5e, 0x3e, 0xfd, 0xb7, 0x85, 0x3d, 0x4a, 0xe9, 0xae, 0xbd,
  0xf7, 0xd8, 0xdd, 0x3d, 0x8a, 0x73, 0x06, 0xbe, 0xe1, 0xb0, 0x3e, 0x3d,
  0xaf, 0x29, 0xc4, 0xbc, 0x8c, 0xb4, 0xa4, 0x3e, 0xda, 0x98, 0xaf, 0xbd,
  0xc2, 0x63, 0x34, 0xbe, 0x68, 0xb3, 0xd8, 0xba, 0x57, 0xc3, 0xcb, 0x3d,
  0x23, 0x3f, 0x5a, 0x3e, 0xd2, 0xaf, 0xe4, 0xbd, 0xfa, 0xab, 0x1a, 0xbf,
  0x72, 0x95, 0xaf, 0x3e, 0x62, 0x6d, 0xd2, 0x3d, 0x8f, 0x5e, 0xee, 0x3e,
  0x6f, 0x92, 0xb0, 0x3c, 0xca, 0x5e, 0x42, 0x3f, 0xf8, 0x7c, 0x00, 0xbe,
  0x66, 0x9c, 0xbc, 0xbe, 0x69, 0xff, 0x0e, 0xbf, 0xd3, 0x19, 0x25, 0xbc,
  0xa3, 0x9c, 0xea, 0xbd, 0x94, 0x94, 0x25, 0x3e, 0x23, 0x89, 0x90, 0xbe,
  0x54, 0x90, 0x07, 0xbd, 0x5e, 0x9b, 0x91, 0xbd, 0x19, 0xeb, 0x2a, 0xbd,
  0x46, 0x0f, 0x07, 0xbe, 0x03, 0x1a, 0x9a, 0xbe, 0x15, 0xe8, 0x18, 0xbf,
  0x9a, 0x28, 0x09, 0xbd, 0x0f, 0xfb, 0x1c, 0xbe, 0x0a, 0x5a, 0xb0, 0x3d,
  0x96, 0xe8, 0xdb, 0xbd, 0xcf, 0xd8, 0x5d, 0x3c, 0xc6, 0xf3, 0x1c, 0x3e,
  0xc0, 0xac, 0xe3, 0xbe, 0xbd, 0x32, 0xab, 0xbe, 0xc0, 0x0e, 0x44, 0xbe,
  0x49, 0x56, 0xf5, 0x3d, 0x01, 0x44, 0x35, 0x3d, 0xdb, 0xcb, 0x47, 0x3e,
  0x3c, 0xdf, 0x03, 0xbe, 0x9d, 0x66, 0x92, 0xbe, 0x5f, 0xc0, 0x47, 0x3e,
  0x13, 0xb8, 0x3d, 0xbd, 0x1a, 0x65, 0x20, 0xbe, 0x08, 0xfe, 0xb5, 0xbc,
  0x21, 0x5c, 0x03, 0xbe, 0xbd, 0x3d, 0x0d, 0xbc, 0xd9, 0x14, 0xdb, 0xbd,
  0xfe, 0x97, 0x88, 0xbe, 0xb8, 0xd4, 0x9a, 0x3d, 0xcb, 0xf6, 0x6b, 0x3d,
  0x3c, 0x07, 0x9e, 0xbd, 0x54, 0x77, 0xad, 0xbd, 0xdb, 0x38, 0x3a, 0x3d,
  0xe5, 0x76, 0x80, 0x3e, 0xf6, 0x1b, 0x62, 0xbd, 0xd5, 0x69, 0xfd, 0xbd,
  0x84, 0x46, 0x14, 0x3e, 0x3a, 0x78, 0x8b, 0x3d, 0xb1, 0xa5, 0xd3, 0x3e,
  0x78, 0x01, 0x5b, 0x3b, 0xa0, 0x7a, 0x57, 0x3d, 0xaa, 0x97, 0x30, 0x3d,
  0xb4, 0x83, 0x16, 0xbe, 0x54, 0xbc, 0x79, 0xbd, 0x71, 0xa8, 0x23, 0x3e,
  0xc9, 0x02, 0xd6, 0xbd, 0xff, 0xc1, 0x36, 0x3e, 0xf2, 0x21, 0x0e, 0x3d,
  0xed, 0x0b, 0x99, 0xbd, 0xb8, 0x65, 0x2f, 0x3e, 0x55, 0x6f, 0x49, 0xbe,
  0xec, 0x11, 0xa8, 0xbe, 0x1e, 0x4c, 0x3a, 0xbe, 0xc1, 0x05, 0x45, 0xbe,
  0xfa, 0x87, 0x0e, 0x3e, 0xc3, 0xef, 0x22, 0xbe, 0xc0, 0xbc, 0x30, 0x3e,
  0x95, 0x29, 0x77, 0xbe, 0x6a, 0x04, 0x96, 0xbd, 0x04, 0xea, 0xb8, 0xbe,
  0xc4, 0xb2, 0x9c, 0xbd, 0xf6, 0xfc, 0x86, 0x3e, 0x19, 0xbc, 0x3e, 0xbe,
  0x7a, 0x8b, 0x1d, 0xbe, 0xf8, 0x1c, 0x84, 0xbe, 0x4d, 0x68, 0x2c, 0x3e,
  0x34, 0x45, 0x8e, 0xbe, 0x85, 0x85, 0x49, 0x3e, 0xc8, 0x0f, 0xdb, 0xbd,
  0x7a, 0x0f, 0x29, 0xbd, 0x78, 0xbb, 0x87, 0xbd, 0xbb, 0x8a, 0x0c, 0xbe,
  0xed, 0x9d, 0x50, 0xbe, 0x09, 0xda, 0xfd, 0xbd, 0x2c, 0xdd, 0x39, 0xbe,
  0xd3, 0x0d, 0x11, 0xbe, 0xc4, 0x80, 0x72, 0xbd, 0x02, 0xf4, 0x5b, 0x3e,
  0xed, 0x2e, 0x04, 0x3e, 0x52, 0x6c, 0x28, 0xbe, 0x69, 0xfe, 0x9e, 0x3d,
  0xc6, 0xf3, 0x8c, 0xbd, 0xcb, 0x52, 0xc2, 0xbd, 0xa3, 0x7b, 0xa5, 0xbd,
  0x2c, 0x2f, 0x58, 0xbd, 0xf3, 0x8e, 0xdc, 0xbd, 0x46, 0x8b, 0xf1, 0xbd,
  0x38, 0x05, 0xab, 0xbd, 0xed, 0x96, 0x5a, 0x3f, 0x35, 0x01, 0x40, 0xbc,
  0x01, 0x3b, 0xf1, 0x3b, 0x38, 0xf9, 0xb4, 0xbc, 0x22, 0x74, 0x28, 0xbd,
  0x20, 0xa0, 0x5a, 0xbd, 0xa8, 0x90, 0xd3, 0xbc, 0x37, 0xa5, 0x52, 0x3e,
  0xbb, 0xe8, 0x1c, 0xbe, 0x48, 0xa0, 0xf9, 0xbc, 0xf5, 0xb1, 0x0e, 0xbe,
  0xb2, 0x54, 0x94, 0xbd, 0xf2, 0x23, 0x10, 0x3e, 0x4f, 0x75, 0x0d, 0x3f,
  0x48, 0x3d, 0x2e, 0xbd, 0x97, 0xac, 0xac, 0xbd, 0x19, 0xd7, 0xd5, 0xbd,
  0x30, 0x0f, 0x18, 0xbd, 0x88, 0x28, 0x4d, 0xbd, 0xec, 0xc2, 0x86, 0xbc,
  0x52, 0xb0, 0x6c, 0xbd, 0x86, 0xbc, 0x7c, 0xbe, 0x85, 0x49, 0x85, 0x3d,
  0xb7, 0x57, 0x13, 0xbd, 0xeb, 0x01, 0x2e, 0xbe, 0xad, 0x7a, 0xbe, 0xbd,
  0xfc, 0x27, 0xee, 0xbc, 0xf8, 0xa2, 0xa4, 0xbd, 0x9d, 0xf7, 0xdc, 0xbd,
  0x08, 0xe5, 0x7b, 0xbe, 0x69, 0x0a, 0xe7, 0xbe, 0x6c, 0xcb, 0xf4, 0xbd,
  0x71, 0x4c, 0x43, 0xbf, 0xf6, 0x4a, 0x58, 0xbc, 0xc2, 0x30, 0x01, 0xbd,
  0xaa, 0xe0, 0xf4, 0xbd, 0xf3, 0x7c, 0x8e, 0xbd, 0xca, 0xbe, 0x02, 0xbe,
  0x7a, 0xf3, 0x89, 0xbe, 0x37, 0xf3, 0x31, 0xbe, 0xfb, 0x18, 0x55, 0xbe,
  0x6a, 0xa2, 0x27, 0xbc, 0x23, 0x5e, 0xf9, 0x3c, 0xcf, 0x2b, 0x31, 0xbe,
  0x55, 0x57, 0xa3, 0x3c, 0x2d, 0xc7, 0x0d, 0x3e, 0xe2, 0x43, 0x96, 0x3e,
  0xa0, 0xd1, 0x0e, 0x3d, 0x87, 0x1f, 0x46, 0x3d, 0x39, 0xc2, 0xcc, 0x3c,
  0xfd, 0xd1, 0x36, 0xbe, 0xcf, 0x21, 0xb1, 0xbe, 0x8e, 0xb7, 0x85, 0x3d,
  0x41, 0xed, 0xb3, 0x3e, 0xe8, 0x41, 0xc8, 0x3e, 0x99, 0xb6, 0x06, 0xbe,
  0x3d, 0x3a, 0xba, 0x3e, 0x17, 0x07, 0x3d, 0x3e, 0x71, 0xb2, 0x29, 0x3e,
  0x16, 0xa8, 0x23, 0xbe, 0x97, 0x13, 0x02, 0xbe, 0x42, 0xd6, 0x11, 0x3e,
  0x88, 0x29, 0x56, 0x3d, 0x74, 0xbd, 0x25, 0xbd, 0x03, 0xf0, 0x04, 0x3e,
  0x33, 0xb6, 0x30, 0xbc, 0xe0, 0x2b, 0x30, 0xbe, 0x6e, 0xa2, 0x82, 0xbf,
  0xac, 0x9b, 0x97, 0x3d, 0x6d, 0x2f, 0x2f, 0x3e, 0x0c, 0xe2, 0x76, 0x3e,
  0x65, 0xf8, 0xa5, 0xbe, 0x0f, 0xac, 0x76, 0x3e, 0xe7, 0xb6, 0x9e, 0xbd,
  0xec, 0x34, 0xcc, 0xbe, 0xda, 0x05, 0x25, 0xbf, 0xa6, 0x9f, 0x3b, 0xbb,
  0x1e, 0x09, 0xb5, 0xbe, 0xe0, 0x79, 0x8c, 0x3c, 0x3f, 0xb2, 0xcb, 0xbe,
  0x40, 0xc2, 0x15, 0x3f, 0xfa, 0x3b, 0xf9, 0xbd, 0x68, 0x21, 0x3f, 0xbe,
  0x20, 0x3b, 0x5b, 0xbe, 0x64, 0xb5, 0x08, 0xbe, 0x43, 0x6f, 0x13, 0xbf,
  0x9e, 0x2a, 0x41, 0xbe, 0x3c, 0x6a, 0xff, 0xbd, 0xe8, 0xab, 0xd2, 0x3e,
  0xe8, 0x77, 0xb5, 0xbd, 0x11, 0x8b, 0x3c, 0x3e, 0x8a, 0x88, 0xd9, 0xbd,
  0x36, 0x8b, 0x3d, 0xbc, 0xcd, 0xc9, 0x12, 0xbc, 0x7a, 0x2f, 0xbf, 0xbd,
  0x24, 0xcc, 0x8c, 0xbe, 0x92, 0x46, 0x2f, 0xbe, 0xbf, 0x72, 0x16, 0xbd,
  0xf7, 0x2b, 0xfb, 0x3c, 0x44, 0x3f, 0x79, 0x3e, 0x31, 0xfe, 0xc8, 0xbd,
  0x8b, 0xd8, 0xd0, 0x3d, 0x18, 0xa2, 0x80, 0xbe, 0xc0, 0x75, 0xc7, 0x3c,
  0x98, 0x2f, 0xad, 0x3d, 0xfa, 0x01, 0xf9, 0xba, 0xb5, 0xf9, 0x8f, 0x3d,
  0xb0, 0x62, 0xf8, 0x3d, 0x50, 0xf9, 0x1e, 0xbd, 0x8d, 0x7a, 0x8f, 0x3d,
  0xd9, 0x6d, 0x88, 0xbb, 0xfc, 0xbd, 0x51, 0xbe, 0x0c, 0xd6, 0x7c, 0xbe,
  0xe9, 0xf1, 0xf4, 0xbd, 0x1b, 0x48, 0x12, 0x3e, 0x45, 0xdd, 0x1f, 0xbd,
  0x68, 0x87, 0xdf, 0x3d, 0xb1, 0x02, 0x19, 0x3e, 0x50, 0xfe, 0x35, 0xbe,
  0x40, 0x3b, 0xcc, 0xbd, 0xf5, 0x63, 0xb0, 0xbd, 0x1d, 0xca, 0x52, 0xbe,
  0x67, 0x98, 0xe3, 0xbd, 0x8f, 0xb3, 0xd4, 0xbc, 0xc7, 0xd2, 0x84, 0xbe,
  0x91, 0xa3, 0x19, 0xbe, 0xd5, 0x42, 0x4e, 0x3c, 0x6a, 0xf6, 0x87, 0xbd,
  0x1c, 0x83, 0x07, 0x3f, 0x46, 0x00, 0x70, 0xbe, 0xa2, 0x10, 0x23, 0xbe,
  0x29, 0x6c, 0x18, 0x3e, 0x82, 0x37, 0x8b, 0xbe, 0xa3, 0x07, 0xce, 0x3d,
  0x51, 0x30, 0x10, 0xbe, 0x32, 0xd1, 0xea, 0x3e, 0x86, 0x52, 0x09, 0x3f,
  0x4d, 0xe0, 0x4a, 0xbe, 0x66, 0xaf, 0xe3, 0x3d, 0x81, 0x5f, 0xbc, 0x3c,
  0x25, 0x40, 0x5f, 0xbe, 0xe9, 0x31, 0xea, 0x3d, 0x6e, 0x17, 0xac, 0x3d,
  0xb5, 0x9c, 0xc4, 0xbd, 0x16, 0x89, 0x2f, 0xbe, 0x2e, 0x3b, 0x8f, 0xbe,
  0x1a, 0x47, 0xfb, 0xbc, 0x93, 0x1e, 0x44, 0xbe, 0x8e, 0xf4, 0x57, 0x3e,
  0x59, 0xb8, 0x51, 0x3e, 0x48, 0x68, 0xe8, 0xbd, 0xb0, 0x19, 0x11, 0xbe,
  0xf6, 0x6d, 0x16, 0x3e, 0x00, 0x31, 0x05, 0xbf, 0x91, 0x72, 0x30, 0xbe,
  0xcb, 0x46, 0x65, 0xbd, 0x04, 0xcb, 0x9a, 0xbe, 0x59, 0xcc, 0x8c, 0xbe,
  0xa1, 0x32, 0x74, 0xbe, 0xb3, 0x00, 0x61, 0xbe, 0x2b, 0x71, 0xec, 0xbe,
  0x7a, 0xc8, 0xea, 0xbd, 0xc3, 0xbc, 0xfc, 0xbd, 0xa6, 0xba, 0x35, 0xbe,
  0x71, 0xd9, 0x91, 0xbd, 0xeb, 0x00, 0x84, 0x3e, 0xac, 0xfe, 0x20, 0xbe,
  0xa8, 0x95, 0xea, 0x3b, 0xb5, 0x2a, 0xb4, 0xbe, 0x4f, 0x06, 0xee, 0xbd,
  0x3f, 0x1c, 0x12, 0xbe, 0x8e, 0x6c, 0xe4, 0xbd, 0x1c, 0xaa, 0x6c, 0xbd,
  0xfd, 0xe3, 0x8d, 0xbb, 0x65, 0xb7, 0x2f, 0xbe, 0x7e, 0x71, 0x3c, 0xbc,
  0xb4, 0x63, 0x44, 0xbe, 0x0c, 0x8d, 0x32, 0x3e, 0x8d, 0x37, 0xde, 0x3d,
  0x93, 0x56, 0x65, 0xbe, 0xd3, 0x7b, 0x8f, 0xbd, 0x15, 0x4d, 0x45, 0x3d,
  0xd7, 0xf9, 0x55, 0xbd, 0x99, 0xa7, 0x9f, 0x3d, 0x97, 0xf0, 0x03, 0xbe,
  0xa4, 0x56, 0x77, 0xbc, 0x25, 0xd7, 0xac, 0xbe, 0xb0, 0x9a, 0xe9, 0xbe,
  0xcd, 0x08, 0x0d, 0x3e, 0xa0, 0xc0, 0x88, 0xbe, 0x82, 0xf9, 0xcf, 0xbd,
  0xd0, 0x77, 0xdc, 0xbc, 0x8a, 0xe3, 0x8a, 0xbe, 0x5e, 0xdd, 0x89, 0x3c,
  0x88, 0x7b, 0x45, 0xbe, 0xa5, 0xba, 0xf5, 0xbe, 0x64, 0xfc, 0xa1, 0xbc,
  0x6b, 0x70, 0xde, 0x3d, 0x39, 0xf7, 0xb6, 0x3d, 0x4e, 0x67, 0xaa, 0xbd,
  0x5e, 0xe7, 0xfb, 0xbd, 0x34, 0x1e, 0x58, 0xbd, 0xf8, 0x8a, 0x17, 0xbe,
  0x0a, 0xbc, 0xde, 0xbe, 0x9b, 0x69, 0xf0, 0xbb, 0x97, 0xe8, 0xa3, 0x3c,
  0xbe, 0x05, 0x82, 0xbd, 0xbc, 0x17, 0x85, 0x3c, 0xa2, 0x62, 0x63, 0x3e,
  0xe1, 0xdb, 0xde, 0x3d, 0x9a, 0x21, 0x71, 0xbe, 0xb1, 0x23, 0xdf, 0xbe,
  0xd0, 0x93, 0x94, 0x3e, 0xe0, 0x76, 0x60, 0x3e, 0x16, 0x33, 0x70, 0x3e,
  0x38, 0xab, 0xe7, 0x3d, 0x4e, 0xba, 0x88, 0x3d, 0xd0, 0x07, 0x77, 0xbe,
  0x42, 0x9e, 0xf8, 0x3d, 0xc7, 0xed, 0xc1, 0x3c, 0xfc, 0x10, 0x8e, 0xbd,
  0xab, 0x4a, 0x86, 0x3d, 0x1d, 0x4c, 0x85, 0x3d, 0x0f, 0x9c, 0x41, 0x3d,
  0x81, 0x89, 0xb3, 0x3e, 0x60, 0x1a, 0xba, 0xbe, 0xec, 0xef, 0x41, 0x3e,
  0x35, 0x49, 0x21, 0x3e, 0x1e, 0x99, 0x4f, 0xbe, 0xb7, 0xff, 0x09, 0x3d,
  0x86, 0xc6, 0x3f, 0xbe, 0x79, 0xf4, 0x33, 0xbe, 0x2f, 0xbd, 0xfd, 0x3b,
  0xe1, 0x8d, 0xc2, 0xbe, 0x24, 0x15, 0x18, 0xbd, 0xa9, 0xc7, 0x09, 0x3e,
  0xb3, 0x01, 0x61, 0xbc, 0x2b, 0x63, 0x4d, 0xbc, 0xa7, 0x9e, 0xe5, 0x3c,
  0xdf, 0x3c, 0x43, 0xbe, 0x87, 0x27, 0xae, 0x3e, 0x13, 0x3b, 0xb4, 0xbe,
  0xcb, 0xfa, 0x5b, 0x3e, 0x4c, 0xef, 0xb8, 0x3d, 0x59, 0xbf, 0x15, 0x3e,
  0x75, 0x6f, 0xd3, 0x3b, 0xd8, 0x1a, 0x4c, 0x3d, 0x1f, 0xd4, 0x4b, 0xbe,
  0xcf, 0x76, 0x39, 0x3e, 0xa8, 0x0c, 0xf7, 0xbd, 0xb6, 0xff, 0x3b, 0xbe,
  0xcf, 0x26, 0x42, 0xbe, 0xcd, 0xbd, 0xc4, 0x3c, 0xd3, 0xad, 0x76, 0xbc,
  0x6b, 0xc6, 0xad, 0xbc, 0x3b, 0xfd, 0x70, 0xbe, 0xd3, 0x2c, 0x2e, 0xbe,
  0xa9, 0xcc, 0xd5, 0xbd, 0xc5, 0xdd, 0x90, 0xbe, 0xca, 0x65, 0x09, 0xbe,
  0xd7, 0x00, 0x1f, 0x3e, 0x55, 0xae, 0x1a, 0xbf, 0x2f, 0x69, 0xbb, 0xbe,
  0x69, 0x13, 0x3d, 0xbe, 0xd9, 0x01, 0x30, 0xbe, 0x6c, 0xd4, 0x8d, 0xbb,
  0x80, 0xae, 0x0f, 0xbd, 0xe2, 0x81, 0x98, 0xbd, 0x4c, 0x8a, 0x59, 0xbe,
  0xc0, 0x3f, 0x15, 0xbf, 0xe8, 0xc1, 0x8c, 0xbe, 0x23, 0xdb, 0x39, 0xbd,
  0x80, 0x95, 0xd5, 0x3e, 0x89, 0x1a, 0x70, 0x3e, 0x13, 0xea, 0xd4, 0x3e,
  0x47, 0x5b, 0xa2, 0xbc, 0x5e, 0x93, 0x84, 0xbe, 0x1d, 0xc4, 0x9c, 0xbc,
  0xd0, 0x14, 0x35, 0x3e, 0x86, 0x38, 0x31, 0x3f, 0x54, 0xba, 0xac, 0x3e,
  0x0a, 0xdf, 0xff, 0xff, 0x10, 0x00, 0x00, 0x00, 0x08, 0x00, 0x00, 0x00,
  0x1c, 0x00, 0x00, 0x00, 0x38, 0x00, 0x00, 0x00, 0x04, 0x00, 0x00, 0x00,
  0x10, 0x00, 0x00, 0x00, 0x04, 0x00, 0x00, 0x00, 0x01, 0x00, 0x00, 0x00,
  0x08, 0x00, 0x00, 0x00, 0x1a, 0x00, 0x00, 0x00, 0x73, 0x65, 0x71, 0x75,
  0x65, 0x6e, 0x74, 0x69, 0x61, 0x6c, 0x2f, 0x63, 0x6f, 0x6e, 0x76, 0x32,
  0x64, 0x5f, 0x31, 0x2f, 0x43, 0x6f, 0x6e, 0x76, 0x32, 0x44, 0x00, 0x00,
  0x04, 0xdf, 0xff, 0xff, 0xfa, 0xdf, 0xff, 0xff, 0x04, 0x00, 0x00, 0x00,
  0x80, 0x01, 0x00, 0x00, 0x44, 0xa1, 0xfe, 0x3d, 0x2a, 0x16, 0xd8, 0xbd,
  0x99, 0xe1, 0x0b, 0x3e, 0x7c, 0x7e, 0xf3, 0x3d, 0xeb, 0x94, 0x05, 0xbe,
  0x0e, 0x2b, 0x18, 0x3e, 0x7e, 0x99, 0x1e, 0x3d, 0xd8, 0x97, 0xc2, 0xbd,
  0xb6, 0x2c, 0x33, 0x3e, 0xbc, 0x0d, 0x09, 0xbd, 0xb2, 0xa7, 0x8e, 0x3d,
  0xdb, 0x1b, 0x2f, 0x3e, 0xb9, 0x28, 0x31, 0x3d, 0x11, 0x3d, 0x92, 0xbe,
  0x18, 0x9f, 0xdf, 0xbd, 0x6e, 0xe0, 0x80, 0x3e, 0xbe, 0x72, 0x9e, 0x3e,
  0x43, 0x28, 0x5f, 0xbb, 0xa7, 0x6f, 0x4d, 0x3d, 0x35, 0xcf, 0x58, 0x3e,
  0x61, 0x2b, 0xd1, 0xbd, 0x9c, 0xe7, 0x9a, 0xbe, 0x6f, 0x7a, 0x0e, 0xbd,
  0x74, 0x44, 0x70, 0x3c, 0x28, 0x70, 0xb9, 0x3e, 0x69, 0x73, 0xb2, 0x3c,
  0x8a, 0xe2, 0x2f, 0xbe, 0x2a, 0xcd, 0xc4, 0x3d, 0xea, 0x71, 0xab, 0xbd,
  0x57, 0x87, 0x79, 0x3e, 0xac, 0x2e, 0xf1, 0x3d, 0x87, 0xf8, 0x2c, 0xbd,
  0x06, 0x5c, 0x92, 0xbd, 0x1f, 0x99, 0x41, 0xbc, 0xaf, 0xc7, 0x84, 0x3e,
  0xfc, 0x42, 0xb6, 0xbd, 0xae, 0xcb, 0x4a, 0xbc, 0x34, 0x50, 0x8d, 0x3d,
  0x5f, 0xd8, 0x2f, 0xbe, 0x27, 0xbf, 0x10, 0xbd, 0x0d, 0xc3, 0x27, 0x3d,
  0xd1, 0x4c, 0x0e, 0xbe, 0x8e, 0x9f, 0x22, 0x3d, 0x9c, 0x0f, 0x80, 0xbe,
  0x5b, 0x9f, 0x6b, 0x3c, 0xff, 0x36, 0x1b, 0xbe, 0xce, 0x76, 0x50, 0xbd,
  0xea, 0xc7, 0x3b, 0x3e, 0x66, 0x11, 0x0a, 0x3f, 0xa2, 0x4e, 0x58, 0x3e,
  0x9e, 0xd9, 0x53, 0x3c, 0x27, 0xa1, 0x26, 0x3e, 0xa3, 0x42, 0x56, 0xbc,
  0x87, 0x76, 0x82, 0x3d, 0x00, 0x28, 0xc2, 0xbe, 0x61, 0x30, 0x25, 0xbe,
  0x48, 0xdf, 0x44, 0x3a, 0x28, 0x11, 0x7f, 0xbe, 0x00, 0xf9, 0x16, 0xbe,
  0xba, 0x0e, 0x01, 0x3e, 0x9e, 0xb2, 0x1b, 0x3e, 0xb4, 0xb9, 0x4a, 0xbe,
  0xb5, 0xbd, 0x21, 0x3e, 0x88, 0xef, 0x1e, 0x3c, 0x87, 0xcf, 0x94, 0x3c,
  0xeb, 0xb9, 0x8b, 0x3e, 0x29, 0x7e, 0xb5, 0xbd, 0x90, 0x8f, 0xf8, 0xbd,
  0x2c, 0x0a, 0xe5, 0x3d, 0x88, 0xd5, 0x72, 0xbd, 0x93, 0x70, 0x81, 0x3e,
  0x51, 0x9d, 0x74, 0xbe, 0xba, 0xf3, 0x45, 0xbd, 0xb6, 0xa3, 0x57, 0xbe,
  0xed, 0x75, 0xf8, 0xbd, 0x7a, 0x19, 0x21, 0x3e, 0x46, 0x4b, 0xc4, 0x3c,
  0xc2, 0xbd, 0x43, 0xbd, 0xeb, 0x66, 0xa7, 0x3e, 0xef, 0x6d, 0x89, 0x3e,
  0x05, 0x63, 0xe6, 0x3e, 0x81, 0x8e, 0x26, 0xbd, 0xfd, 0x46, 0xf6, 0xbb,
  0x0a, 0xa2, 0xea, 0x3d, 0xa2, 0x87, 0x83, 0xbd, 0xac, 0xd0, 0xea, 0x3c,
  0x17, 0x1b, 0x11, 0xbe, 0xdc, 0x87, 0x76, 0xbe, 0x2e, 0x58, 0x9c, 0xbe,
  0xa3, 0x03, 0x1d, 0xbf, 0xe4, 0x9b, 0xb0, 0x3e, 0xe5, 0x39, 0xa6, 0x3d,
  0xb6, 0xc1, 0x3f, 0x3e, 0x01, 0x2e, 0x78, 0xbd, 0x0f, 0x37, 0x6a, 0x3e,
  0xaa, 0xf4, 0x19, 0x3f, 0xe2, 0xe0, 0xff, 0xff, 0x10, 0x00, 0x00, 0x00,
  0x07, 0x00, 0x00, 0x00, 0x1c, 0x00, 0x00, 0x00, 0x38, 0x00, 0x00, 0x00,
  0x04, 0x00, 0x00, 0x00, 0x08, 0x00, 0x00, 0x00, 0x04, 0x00, 0x00, 0x00,
  0x03, 0x00, 0x00, 0x00, 0x01, 0x00, 0x00, 0x00, 0x18, 0x00, 0x00, 0x00,
  0x73, 0x65, 0x71, 0x75, 0x65, 0x6e, 0x74, 0x69, 0x61, 0x6c, 0x2f, 0x63,
  0x6f, 0x6e, 0x76, 0x32, 0x64, 0x2f, 0x43, 0x6f, 0x6e, 0x76, 0x32, 0x44,
  0x00, 0x00, 0x00, 0x00, 0xdc, 0xe0, 0xff, 0xff, 0xd2, 0xe1, 0xff, 0xff,
  0x04, 0x00, 0x00, 0x00, 0xc0, 0x00, 0x00, 0x00, 0xab, 0x69, 0xde, 0xbd,
  0x34, 0x86, 0x6d, 0x3e, 0x9f, 0xda, 0x09, 0x3f, 0xa1, 0xd5, 0x97, 0xbe,
  0xb7, 0x31, 0x6c, 0xbe, 0x20, 0xcb, 0xcb, 0x3e, 0xb1, 0x0c, 0xbf, 0x3e,
  0x82, 0x88, 0xc7, 0x3e, 0x80, 0x80, 0xc1, 0xbe, 0x7a, 0x01, 0xe2, 0xbb,
  0x9a, 0xa0, 0x9e, 0x3d, 0xed, 0x7b, 0x7d, 0xbe, 0x0f, 0xbd, 0x1c, 0xbd,
  0x8a, 0xcb, 0x0d, 0xbf, 0x28, 0xb7, 0xf9, 0xbd, 0x19, 0x29, 0xbd, 0x3d,
  0xe1, 0x7f, 0x75, 0xbd, 0x8f, 0xfd, 0xa3, 0x3e, 0x4a, 0x35, 0xb2, 0xbd,
  0xc3, 0x98, 0xba, 0xbe, 0x63, 0xac, 0xe3, 0x3d, 0x37, 0x37, 0xe4, 0x3e,
  0x31, 0xd1, 0xdf, 0x3e, 0xa6, 0x9d, 0x6a, 0x3e, 0x70, 0x93, 0xa1, 0x3e,
  0xa7, 0x38, 0xc6, 0xbd, 0x70, 0xa3, 0x28, 0x3e, 0x86, 0x7f, 0x7f, 0xbc,
  0xd9, 0x38, 0x40, 0x3c, 0x93, 0x62, 0xa9, 0xbe, 0x0d, 0xef, 0x1f, 0xbd,
  0x33, 0xc1, 0x0c, 0x3e, 0xe0, 0x38, 0x21, 0xbd, 0xd9, 0x35, 0xae, 0x3e,
  0x6e, 0x4a, 0x38, 0x3e, 0xe2, 0x12, 0x5b, 0xbd, 0x45, 0x24, 0xc7, 0x3e,
  0x70, 0x51, 0x00, 0x3f, 0xb5, 0x56, 0xae, 0x3e, 0xbc, 0x64, 0x9f, 0x3e,
  0xfb, 0xa0, 0xa4, 0x3c, 0xa5, 0x01, 0xa9, 0x3d, 0x1e, 0xfa, 0x1a, 0x3e,
  0x55, 0xd5, 0x96, 0x3e, 0xbf, 0xa6, 0x41, 0xbd, 0xbf, 0xa5, 0x84, 0x3c,
  0xba, 0xa2, 0xe3, 0xbd, 0x4d, 0x48, 0x81, 0xbc, 0xfa, 0xe1, 0xff, 0xff,
  0x10, 0x00, 0x00, 0x00, 0x06, 0x00, 0x00, 0x00, 0x14, 0x00, 0x00, 0x00,
  0x30, 0x00, 0x00, 0x00, 0x02, 0x00, 0x00, 0x00, 0x03, 0x00, 0x00, 0x00,
  0x10, 0x00, 0x00, 0x00, 0x19, 0x00, 0x00, 0x00, 0x73, 0x65, 0x71, 0x75,
  0x65, 0x6e, 0x74, 0x69, 0x61, 0x6c, 0x2f, 0x64, 0x65, 0x6e, 0x73, 0x65,
  0x5f, 0x31, 0x2f, 0x4d, 0x61, 0x74, 0x4d, 0x75, 0x6c, 0x00, 0x00, 0x00,
  0xec, 0xe1, 0xff, 0xff, 0xe2, 0xe2, 0xff, 0xff, 0x04, 0x00, 0x00, 0x00,
  0x00, 0x1c, 0x00, 0x00, 0xc5, 0x9a, 0x78, 0xbe, 0x1f, 0x09, 0xb2, 0x3d,
  0x02, 0x83, 0x09, 0xbd, 0x42, 0xa3, 0x28, 0xbe, 0x8c, 0x4a, 0x70, 0xbe,
  0x00, 0x91, 0xb4, 0xbd, 0xe0, 0xfc, 0x31, 0x3e, 0x8f, 0xf0, 0xce, 0xbe,
  0x75, 0xbc, 0x11, 0xbe, 0x07, 0xd2, 0x66, 0xbe, 0x68, 0x83, 0x7f, 0x3d,
  0x9d, 0x91, 0x0b, 0xbe, 0xa6, 0x44, 0x74, 0x3e, 0x59, 0x76, 0x90, 0xbd,
  0xef, 0x43, 0x24, 0x3d, 0x8d, 0x47, 0x17, 0xbe, 0xc1, 0x01, 0x14, 0xbe,
  0xb4, 0x42, 0x7d, 0x3d, 0x52, 0x67, 0x08, 0xbe, 0x15, 0xde, 0x97, 0x3e,
  0xe5, 0xad, 0x80, 0xbe, 0x1b, 0x3a, 0xf9, 0x3d, 0x6c, 0x11, 0xbf, 0xbc,
  0xbf, 0xe1, 0xb4, 0xbd, 0x70, 0x43, 0xee, 0xbd, 0xc7, 0xa1, 0x0d, 0xbe,
  0xef, 0x08, 0x1f, 0x3e, 0xcf, 0x57, 0x7a, 0x3d, 0x88, 0x91, 0x22, 0xbe,
  0x8e, 0x4f, 0xa0, 0x3e, 0x3a, 0x8a, 0x7d, 0x3e, 0x16, 0x13, 0xca, 0xbd,
  0x85, 0xaf, 0xfd, 0xbc, 0x43, 0x64, 0x76, 0x3d, 0x1f, 0x4b, 0xd6, 0xbd,
  0xfb, 0xbd, 0xe6, 0x3e, 0x71, 0x99, 0x5f, 0xbd, 0xc0, 0xb0, 0x1e, 0x3b,
  0x99, 0xb1, 0x17, 0x3d, 0xab, 0x72, 0x21, 0xbe, 0x32, 0x4e, 0x31, 0xbd,
  0x82, 0xd9, 0x0c, 0xbe, 0x8b, 0x05, 0xc9, 0x3c, 0x9c, 0xa8, 0x9d, 0x3e,
  0x51, 0xd3, 0xb6, 0xbe, 0xb9, 0xf0, 0x3b, 0xbe, 0x82, 0x45, 0x7b, 0x3e,
  0xd5, 0xfd, 0x15, 0xbe, 0x2f, 0x74, 0x01, 0xbe, 0x56, 0xe3, 0x16, 0x3e,
  0x43, 0x52, 0xfc, 0xbc, 0x2e, 0xf5, 0xc1, 0x3e, 0xe2, 0xbf, 0xed, 0xbd,
  0x0b, 0x63, 0xb5, 0xbc, 0x36, 0xd1, 0xde, 0xbd, 0x7c, 0xca, 0xc5, 0xbd,
  0x3f, 0xe9, 0xe0, 0xbd, 0x30, 0x25, 0xa3, 0xbd, 0xf9, 0x26, 0x97, 0xbd,
  0xb9, 0x51, 0xce, 0x3d, 0x7d, 0xd0, 0x3f, 0xbe, 0x0d, 0x07, 0xeb, 0x3c,
  0x1f, 0x01, 0xd9, 0x3c, 0xb1, 0xe2, 0x12, 0xbd, 0x70, 0x6e, 0x3b, 0x3c,
  0x37, 0x97, 0xdb, 0xbb, 0x47, 0xc0, 0x11, 0xbe, 0x04, 0xd5, 0x40, 0x3e,
  0x7c, 0x78, 0x57, 0xbe, 0x27, 0x49, 0x60, 0x3d, 0x9e, 0x3b, 0xff, 0xbd,
  0xeb, 0x3a, 0x14, 0xbe, 0x05, 0x4e, 0xdc, 0xbd, 0xbe, 0x25, 0xf3, 0xbd,
  0x71, 0xd5, 0x60, 0x3d, 0x87, 0x35, 0x89, 0x3e, 0x59, 0x57, 0xd2, 0xbe,
  0xbe, 0x2c, 0x98, 0x3c, 0x47, 0xf2, 0x4d, 0x3e, 0x8e, 0x5b, 0x18, 0xbe,
  0x4c, 0x96, 0x7e, 0xbe, 0x95, 0x38, 0x93, 0x3d, 0x97, 0xed, 0x5c, 0xbe,
  0x85, 0xf0, 0x35, 0x3d, 0x07, 0x5f, 0x86, 0xbe, 0x88, 0x47, 0xb6, 0x3d,
  0x3d, 0x39, 0x08, 0x3e, 0xfa, 0x5f, 0x58, 0xbd, 0x85, 0xdf, 0x97, 0xbe,
  0x36, 0xfd, 0x36, 0xbe, 0x6a, 0x9c, 0x76, 0xbd, 0x62, 0xd8, 0x14, 0x3e,
  0x4d, 0x3d, 0x60, 0xbe, 0x03, 0x91, 0x81, 0xbd, 0x0b, 0xb2, 0x8b, 0x3e,
  0x93, 0x4b, 0x37, 0xbe, 0x3c, 0x4b, 0xe6, 0xbd, 0x3a, 0xca, 0x1b, 0x3c,
  0xec, 0xcf, 0x06, 0xbe, 0x57, 0xd7, 0x46, 0x3d, 0x40, 0xbc, 0xbc, 0xbd,
  0xe2, 0x6e, 0x4b, 0x3d, 0x4d, 0x30, 0x94, 0x3d, 0xb2, 0x01, 0x00, 0xbe,
  0xc9, 0x48, 0xfb, 0xbc, 0x06, 0x80, 0xde, 0xbc, 0x77, 0x86, 0xb3, 0x3c,
  0x11, 0xad, 0x08, 0xbb, 0x96, 0x79, 0x12, 0xbf, 0xb5, 0x14, 0x3b, 0x3d,
  0x18, 0x42, 0x67, 0x3e, 0xf8, 0x4f, 0x0d, 0xbe, 0x89, 0xee, 0xd0, 0xbe,
  0x4c, 0xd3, 0x72, 0x3c, 0xd2, 0x41, 0xa8, 0x3d, 0xd0, 0x0f, 0x0f, 0xbe,
  0x45, 0x31, 0x8b, 0xbe, 0xb3, 0x99, 0xfe, 0xbc, 0xb2, 0x29, 0x34, 0x3f,
  0x21, 0x63, 0xb5, 0xbe, 0xb3, 0x4c, 0x23, 0xbe, 0xae, 0x86, 0xb3, 0xbe,
  0x62, 0xc3, 0x9c, 0x3d, 0xb2, 0x37, 0x7f, 0xbd, 0x2d, 0x77, 0xba, 0x3e,
  0x57, 0x21, 0x26, 0x3d, 0x1a, 0x76, 0x64, 0x3e, 0x53, 0xec, 0x1d, 0xbe,
  0xb2, 0x64, 0xf2, 0xbd, 0x52, 0xfb, 0xa4, 0x3d, 0x46, 0xd6, 0x70, 0xbe,
  0x28, 0x9e, 0xe8, 0x3e, 0xd8, 0x61, 0x8c, 0xbe, 0x9f, 0xf0, 0x8c, 0x3d,
  0xbc, 0x16, 0x27, 0x3e, 0xaa, 0xa2, 0x99, 0xbd, 0xe3, 0xda, 0x3c, 0x3e,
  0x6b, 0xb8, 0xa3, 0xbe, 0x0b, 0xf6, 0xb7, 0x3d, 0xa3, 0x9b, 0x9e, 0x3e,
  0x77, 0xfa, 0xca, 0xbe, 0x81, 0x75, 0x7a, 0x3e, 0x6e, 0xf1, 0xc1, 0x3e,
  0x45, 0xf0, 0xb0, 0xbe, 0xaa, 0x43, 0xeb, 0xbe, 0xc5, 0x36, 0xaf, 0x3d,
  0x96, 0x58, 0xab, 0xbe, 0x94, 0xb6, 0x4c, 0x3f, 0xa3, 0x7a, 0x08, 0xbe,
  0x46, 0x69, 0x22, 0x3d, 0xfe, 0xf3, 0x17, 0x3e, 0xb7, 0x22, 0x38, 0x3e,
  0x8a, 0x5b, 0x06, 0xbe, 0x29, 0xfe, 0xb9, 0xbe, 0x84, 0xa5, 0x94, 0x3d,
  0x46, 0x4b, 0x6e, 0x3e, 0x15, 0x75, 0x2b, 0xbf, 0x13, 0xf7, 0x16, 0xbd,
  0x57, 0xad, 0x9b, 0x3e, 0x69, 0x8e, 0x68, 0xbe, 0x74, 0x5c, 0x47, 0xbe,
  0x99, 0xcb, 0x57, 0x3d, 0xad, 0x83, 0x9c, 0xbe, 0x06, 0xba, 0x53, 0x3f,
  0xef, 0xf6, 0x12, 0xbe, 0xc2, 0xa3, 0x0a, 0x3d, 0xfb, 0x51, 0xae, 0x3e,
  0x6b, 0xc7, 0x12, 0x3e, 0x3c, 0x80, 0x42, 0xbe, 0x46, 0x5c, 0xbb, 0xbe,
  0x3d, 0x66, 0x0d, 0x3d, 0x8a, 0x24, 0x50, 0x3e, 0x14, 0x7b, 0x20, 0xbf,
  0x22, 0x75, 0x49, 0x3d, 0xbc, 0xe0, 0x8a, 0x3e, 0xe6, 0xe6, 0x96, 0xbe,
  0x79, 0xbd, 0x3b, 0xbe, 0xde, 0x9d, 0xb4, 0x3d, 0x96, 0x30, 0x67, 0xbe,
  0xfc, 0x63, 0xf2, 0x3e, 0xef, 0x7e, 0x59, 0xbe, 0xcd, 0xd3, 0x40, 0x3d,
  0xd4, 0x92, 0x4f, 0x3e, 0xd7, 0xc0, 0x84, 0x3d, 0x2b, 0x2b, 0x49, 0xbe,
  0x4e, 0xf0, 0x58, 0xbe, 0x31, 0x88, 0x44, 0x3d, 0x73, 0x31, 0x84, 0x3e,
  0x28, 0x6b, 0x08, 0xbf, 0x31, 0x03, 0x11, 0x3d, 0xde, 0x6b, 0x90, 0x3d,
  0xc6, 0xc9, 0x8f, 0xbe, 0xb9, 0x7b, 0xd3, 0xbe, 0xc2, 0xac, 0xf0, 0x3b,
  0x27, 0x85, 0x2e, 0xbf, 0x5f, 0xab, 0xa4, 0x3e, 0x09, 0x0c, 0x2c, 0xbe,
  0x9b, 0x69, 0x92, 0x3b, 0xa2, 0x6d, 0xbc, 0xbc, 0x8e, 0xf0, 0x2c, 0xbd,
  0xe6, 0x76, 0x16, 0xbf, 0x51, 0x71, 0x19, 0xbf, 0xb2, 0x38, 0xb5, 0xbd,
  0x00, 0xb3, 0x93, 0x3d, 0x27, 0x72, 0xf5, 0xbe, 0x15, 0xd2, 0x30, 0xbd,
  0x74, 0x4e, 0x04, 0x3e, 0x72, 0x9f, 0x8d, 0xbe, 0x91, 0x10, 0xb0, 0x3c,
  0x35, 0xc4, 0x97, 0x3d, 0x5c, 0x1a, 0x36, 0xbe, 0xdc, 0x46, 0x63, 0x3d,
  0x5f, 0x51, 0x15, 0xbe, 0xc6, 0xee, 0x81, 0x3c, 0x61, 0x74, 0x4d, 0xbd,
  0x81, 0xac, 0x18, 0xbe, 0xf1, 0xd7, 0x06, 0xbd, 0x9e, 0xb0, 0x27, 0x3b,
  0x1e, 0x59, 0x01, 0x3c, 0x37, 0x96, 0xd4, 0xbc, 0x28, 0xe4, 0x31, 0xbf,
  0x59, 0xeb, 0x46, 0x3c, 0x56, 0xc8, 0x3e, 0x3d, 0x3e, 0x10, 0xdf, 0x3c,
  0xb7, 0xb4, 0xfc, 0xbd, 0x22, 0xe6, 0x93, 0xbe, 0x19, 0x43, 0xf5, 0xbd,
  0xda, 0x9c, 0x41, 0xbe, 0xcc, 0x57, 0x5c, 0xbd, 0xdd, 0x05, 0x44, 0xbe,
  0x95, 0x73, 0xb2, 0x3f, 0xec, 0x2d, 0x6f, 0x3d, 0x37, 0x2c, 0xa4, 0x3d,
  0x8d, 0x36, 0x85, 0xbe, 0x20, 0x1e, 0x77, 0xbd, 0x26, 0x9a, 0x85, 0xbe,
  0xac, 0x87, 0xab, 0x3e, 0xf4, 0xa3, 0xa8, 0xbe, 0xf5, 0x2a, 0xad, 0x3c,
  0x03, 0x99, 0x5e, 0xbe, 0x99, 0x2d, 0x27, 0xbe, 0x06, 0xcd, 0xb2, 0xbe,
  0xae, 0x50, 0x08, 0xbe, 0xfa, 0x5a, 0xbe, 0xbb, 0x6d, 0x3b, 0xf4, 0xbd,
  0x88, 0x24, 0xb3, 0xbe, 0xd8, 0x4d, 0x27, 0x3f, 0xb2, 0xfd, 0x92, 0xbd,
  0x2a, 0xdc, 0xa3, 0xbd, 0xc0, 0x78, 0x2c, 0xbe, 0xdc, 0x53, 0xb6, 0xbe,
  0x4a, 0xd3, 0x91, 0xbe, 0xd1, 0xc8, 0x1e, 0x3f, 0xb2, 0x1f, 0xac, 0xbd,
  0xcc, 0x6e, 0x8e, 0xbe, 0x05, 0x96, 0xea, 0x3d, 0xc6, 0x05, 0x2a, 0xbe,
  0x88, 0x31, 0x64, 0xbe, 0x2a, 0xb1, 0xd5, 0xbc, 0x86, 0xd0, 0x05, 0x3e,
  0x3f, 0x8d, 0xe9, 0x3a, 0xa8, 0xd9, 0x2d, 0xbe, 0x5a, 0x79, 0xb0, 0x3f,
  0x33, 0x71, 0x97, 0x3d, 0x18, 0x10, 0xa2, 0x3d, 0xe2, 0x3b, 0x38, 0xbe,
  0xc3, 0x14, 0x27, 0xbe, 0x2a, 0x01, 0xd9, 0xbd, 0x6d, 0xfd, 0x1a, 0x3f,
  0x1a, 0x89, 0x19, 0xbc, 0xdc, 0x33, 0x9c, 0x3d, 0x9f, 0x4d, 0xf1, 0xbd,
  0x4f, 0x5f, 0x69, 0x3e, 0x26, 0x1b, 0xa2, 0xbe, 0xf2, 0x68, 0x36, 0xbe,
  0xf4, 0x32, 0xf8, 0x3d, 0xf1, 0x1b, 0x16, 0x3d, 0x10, 0x81, 0x9c, 0xbd,
  0x3f, 0xfe, 0x8c, 0x3f, 0xc3, 0x7b, 0x69, 0x3a, 0xec, 0xdb, 0xe7, 0xbd,
  0xce, 0x83, 0x53, 0xbe, 0x2d, 0xe0, 0x2d, 0xbe, 0x59, 0x50, 0x42, 0xbe,
  0x06, 0xb2, 0x58, 0x3f, 0xbe, 0x00, 0x2c, 0xbe, 0x75, 0x2e, 0x3a, 0x3e,
  0xae, 0x2a, 0x21, 0xbc, 0x85, 0xf2, 0x52, 0x3d, 0xfc, 0x79, 0x22, 0xbe,
  0x56, 0x15, 0xe1, 0xbd, 0x3e, 0xd8, 0x7c, 0xbe, 0x13, 0xf4, 0x73, 0xbe,
  0x2b, 0xaa, 0xbd, 0xbe, 0xcb, 0xe4, 0xb4, 0x3f, 0x8c, 0xb0, 0x31, 0x3d,
  0x49, 0x06, 0xaa, 0xbe, 0x10, 0xf4, 0xe2, 0xbc, 0x6d, 0xf8, 0x89, 0xbe,
  0x15, 0xaa, 0x0f, 0xbe, 0xf4, 0xa6, 0x28, 0x3f, 0x6c, 0xc7, 0xb1, 0xbe,
  0x40, 0x24, 0x13, 0xbe, 0xbe, 0x42, 0xf0, 0xbd, 0x63, 0xb1, 0xe9, 0x3d,
  0x50, 0xe6, 0x5a, 0x3a, 0xde, 0x33, 0x01, 0xbe, 0xab, 0xbb, 0x01, 0xbc,
  0x35, 0x67, 0x02, 0xbe, 0xe1, 0x6d, 0x85, 0xbe, 0xb5, 0x0c, 0xfc, 0x3f,
  0x95, 0xcc, 0xcd, 0xbd, 0xfb, 0xca, 0xa1, 0xbe, 0xdf, 0x55, 0xe7, 0xbd,
  0xaf, 0x89, 0x88, 0xbe, 0xa6, 0x9b, 0x3f, 0xbe, 0xaf, 0x87, 0xff, 0x3e,
  0xfa, 0xf1, 0x00, 0xbe, 0xab, 0xf8, 0x88, 0xbd, 0x4a, 0xf3, 0x3d, 0xbe,
  0xdd, 0xaf, 0x79, 0xbd, 0x7e, 0xcc, 0xb9, 0xbe, 0x1b, 0xf1, 0xbc, 0xbc,
  0x73, 0x34, 0x5a, 0xbe, 0x5e, 0x4d, 0x86, 0xbe, 0x4d, 0x39, 0x83, 0xbd,
  0xf7, 0xf3, 0x57, 0xbb, 0xc6, 0xbf, 0x95, 0xbe, 0x05, 0xb7, 0xda, 0xbd,
  0xb2, 0x11, 0x68, 0xbd, 0x44, 0x14, 0xc4, 0xbd, 0x30, 0x65, 0x8c, 0xbe,
  0xd4, 0xc8, 0x85, 0x3f, 0xe4, 0x65, 0xa0, 0xbe, 0x62, 0xd0, 0xae, 0xbd,
  0x9b, 0x50, 0x95, 0xbe, 0x1e, 0x46, 0x54, 0xbd, 0xfc, 0xa6, 0x77, 0xbe,
  0xa1, 0xd6, 0xee, 0x3d, 0x68, 0xb0, 0xdf, 0xb9, 0xc8, 0xba, 0xf7, 0x3c,
  0xad, 0xad, 0x46, 0xbe, 0xb6, 0xba, 0xe5, 0x3c, 0xe9, 0x3e, 0x65, 0xbe,
  0xd3, 0xb9, 0xb4, 0xbc, 0xef, 0xa2, 0x1a, 0x3d, 0x0d, 0x29, 0xc7, 0xbd,
  0x64, 0xe9, 0x82, 0xbe, 0x23, 0x93, 0x58, 0x3b, 0x30, 0x3d, 0x1f, 0xbe,
  0x1d, 0x52, 0x36, 0xbd, 0xfb, 0xba, 0xbf, 0x3c, 0x27, 0x4d, 0x7a, 0xbe,
  0x17, 0x9e, 0x35, 0xbe, 0xa8, 0xa1, 0x20, 0x3e, 0x92, 0xfb, 0xb1, 0x3d,
  0x8e, 0xde, 0x40, 0xbe, 0xfd, 0x42, 0x8a, 0xbd, 0x14, 0x0f, 0xaa, 0xbd,
  0x4a, 0x2f, 0xba, 0xbe, 0x02, 0x59, 0x38, 0xbe, 0x92, 0x7f, 0x3b, 0xbe,
  0x74, 0x77, 0xac, 0xbe, 0x5f, 0xe8, 0xd7, 0x3d, 0xe8, 0x37, 0xcb, 0x3d,
  0x3a, 0x8e, 0x20, 0xbe, 0x77, 0x11, 0xa7, 0xbd, 0x9f, 0xda, 0xf7, 0x3b,
  0x07, 0x74, 0xcf, 0x3d, 0xe9, 0xed, 0x3b, 0xbe, 0xfe, 0x41, 0xb0, 0x3d,
  0xd3, 0xa7, 0x04, 0xbe, 0xc6, 0x5b, 0x2b, 0xbe, 0xd3, 0x47, 0xa9, 0xba,
  0x2d, 0xd9, 0x60, 0xbe, 0x13, 0x77, 0x78, 0xbd, 0x92, 0xf2, 0x30, 0xbc,
  0xbb, 0x81, 0x20, 0xbc, 0x77, 0x9e, 0xd1, 0xbd, 0xc8, 0x2d, 0x7c, 0xbd,
  0x66, 0x2f, 0x10, 0x3e, 0x08, 0x57, 0x9a, 0x3d, 0xbc, 0x76, 0x76, 0xbd,
  0x63, 0xfa, 0xdf, 0xbd, 0xa4, 0xe1, 0xc9, 0x3b, 0xb3, 0xe8, 0x27, 0x3d,
  0xba, 0x61, 0x5e, 0xbe, 0x55, 0xb4, 0x35, 0xbe, 0xe4, 0x6f, 0x18, 0xbe,
  0x7b, 0x16, 0x0a, 0xbd, 0xda, 0x89, 0x8e, 0xbd, 0xfb, 0x54, 0xbd, 0xbe,
  0xc8, 0x8c, 0x46, 0xbd, 0x37, 0x67, 0x17, 0xbd, 0x68, 0xcd, 0xbc, 0xbe,
  0x5b, 0xc6, 0x11, 0xbe, 0x99, 0x9d, 0xce, 0x3d, 0x0e, 0x4a, 0x05, 0xbe,
  0x3a, 0x30, 0x93, 0xbd, 0xaa, 0xdf, 0x45, 0x3d, 0x66, 0xd0, 0x3c, 0xbe,
  0x21, 0x59, 0xcb, 0xbd, 0x87, 0x60, 0xf3, 0x3d, 0x1e, 0xa5, 0x1a, 0xbd,
  0x1b, 0x29, 0x3c, 0xbe, 0x2d, 0xc7, 0x89, 0xbc, 0x67, 0x8a, 0x03, 0x3e,
  0x15, 0x46, 0x22, 0xbe, 0x46, 0x24, 0x40, 0xbe, 0xd6, 0x71, 0x39, 0x3e,
  0x94, 0x07, 0x09, 0xbe, 0x80, 0x4b, 0x15, 0x3d, 0x0a, 0x52, 0x22, 0xbe,
  0x54, 0x64, 0xcb, 0xbd, 0xce, 0x2d, 0xd9, 0x3c, 0x14, 0xa9, 0x55, 0xbe,
  0x55, 0x54, 0x78, 0xbd, 0x97, 0xd7, 0xd0, 0x3c, 0x73, 0x18, 0xb7, 0xbd,
  0x02, 0xa2, 0x0c, 0xbd, 0x7c, 0x63, 0xd4, 0xbd, 0x52, 0x70, 0xb2, 0xbe,
  0x21, 0xf1, 0x5d, 0xbe, 0x4a, 0x19, 0x4a, 0xbe, 0xa8, 0x79, 0x41, 0xbd,
  0xad, 0x45, 0x31, 0xbd, 0x28, 0x3e, 0x82, 0xbc, 0x2d, 0xd7, 0x2f, 0xbd,
  0x54, 0xc1, 0xc2, 0x3d, 0x2c, 0xb8, 0x8f, 0xbe, 0xdc, 0x87, 0xa5, 0xbd,
  0xc9, 0x78, 0x8d, 0xbd, 0xcd, 0xf8, 0x70, 0xbe, 0x60, 0x0f, 0xff, 0xbc,
  0xe9, 0x2e, 0x81, 0x3d, 0x0c, 0xac, 0x00, 0xbe, 0x16, 0x9d, 0x85, 0xbe,
  0x32, 0xef, 0x9f, 0xbd, 0xe6, 0x67, 0x7c, 0x3d, 0x9a, 0x1b, 0xd3, 0xbd,
  0x8b, 0x6b, 0x2a, 0xbe, 0x5f, 0x1e, 0xe8, 0x3d, 0x6d, 0xd9, 0xfa, 0xbd,
  0xbc, 0xb1, 0x41, 0xbe, 0x3a, 0xfe, 0xdb, 0xbc, 0x64, 0xdf, 0x78, 0xbd,
  0x76, 0xf7, 0x85, 0xbe, 0x22, 0x58, 0xb6, 0xbd, 0x7e, 0x03, 0xf8, 0x3c,
  0x85, 0x86, 0x84, 0xbe, 0x99, 0x20, 0xee, 0xbd, 0x89, 0x3c, 0x1b, 0xbe,
  0x85, 0xb9, 0x9d, 0xbd, 0x5e, 0xf6, 0xe4, 0xbd, 0x9a, 0xde, 0x32, 0xbe,
  0xec, 0x4d, 0xe3, 0xbd, 0x0e, 0x66, 0x4e, 0xbe, 0xad, 0x83, 0x09, 0x3d,
  0x00, 0x3c, 0x97, 0x3b, 0x58, 0xd4, 0x4f, 0xbe, 0xa2, 0x33, 0x72, 0x3d,
  0x43, 0xc1, 0x63, 0xbe, 0x94, 0xe0, 0x04, 0x3d, 0xd0, 0x1b, 0x6a, 0xbe,
  0xdc, 0xb8, 0xf2, 0xbd, 0x98, 0xc6, 0xa2, 0xbd, 0x80, 0xb6, 0x4f, 0xbd,
  0x10, 0x61, 0x95, 0xbc, 0x99, 0x0c, 0x79, 0xbd, 0x91, 0x0a, 0x6f, 0xbe,
  0x17, 0x7d, 0x1f, 0x3c, 0x03, 0x1d, 0xbb, 0xbd, 0xf4, 0x3b, 0x28, 0xbe,
  0x1f, 0xb8, 0xcb, 0xbd, 0xa5, 0xd8, 0x54, 0xbe, 0x46, 0x4a, 0xdd, 0xbd,
  0xdf, 0x86, 0xf7, 0x3c, 0x25, 0x71, 0xf4, 0x3d, 0xd6, 0xa9, 0x14, 0xbe,
  0xcd, 0x18, 0x61, 0xbe, 0x86, 0x94, 0xb3, 0xbd, 0x38, 0xed, 0x2c, 0xbe,
  0xf5, 0x5f, 0xcb, 0x3d, 0x7b, 0xd2, 0x61, 0x3d, 0x66, 0x81, 0x16, 0x3d,
  0x62, 0xf0, 0x74, 0xbe, 0x0e, 0xb2, 0xc8, 0x3b, 0xe5, 0xfe, 0xb2, 0xbc,
  0x74, 0x6e, 0x26, 0x3d, 0x45, 0xd1, 0xab, 0xbd, 0xf4, 0x28, 0x3d, 0xbe,
  0xc8, 0xdb, 0xf5, 0xbd, 0xc9, 0xa9, 0x0f, 0xbe, 0xa7, 0x34, 0x1c, 0xbe,
  0x08, 0x67, 0x83, 0xbd, 0x59, 0x7b, 0x02, 0x3e, 0x78, 0x9c, 0x64, 0xbe,
  0xcb, 0xc0, 0x47, 0xbe, 0xb5, 0xf3, 0x63, 0xbe, 0x60, 0xa3, 0x31, 0xbe,
  0xda, 0x32, 0x69, 0xbe, 0xfc, 0x7b, 0x85, 0x3d, 0xb5, 0xd2, 0xf4, 0x3d,
  0xd3, 0x66, 0xdd, 0x3d, 0xb0, 0x3c, 0x1b, 0x3d, 0x1c, 0x29, 0xdf, 0xbb,
  0x4e, 0xe4, 0x10, 0x3d, 0xf0, 0x80, 0x7b, 0xbe, 0x2c, 0x98, 0x1b, 0xbd,
  0xa4, 0xa3, 0xea, 0xbd, 0x3e, 0x77, 0xa6, 0x3d, 0x1c, 0xee, 0x38, 0xbe,
  0x26, 0x52, 0xcf, 0xbd, 0x01, 0x1a, 0x86, 0xbe, 0x93, 0x71, 0xc4, 0xbd,
  0xc3, 0xad, 0x22, 0x3e, 0x36, 0x81, 0x49, 0x3c, 0xc6, 0xd2, 0x35, 0xbe,
  0x4e, 0x4c, 0xec, 0x3d, 0x13, 0x67, 0x98, 0x3d, 0x7c, 0xae, 0x2c, 0xbd,
  0xc5, 0xad, 0x64, 0xbe, 0xc5, 0xc0, 0xcf, 0x3c, 0x0a, 0x92, 0x06, 0xbe,
  0xfd, 0xd6, 0xa5, 0x3d, 0x34, 0x8d, 0x74, 0xbd, 0xce, 0x0b, 0xae, 0x3d,
  0xca, 0xbd, 0x0f, 0xbe, 0x1a, 0xfb, 0x2b, 0xbe, 0x69, 0x9b, 0xab, 0x3d,
  0xd1, 0x90, 0xd3, 0x3c, 0x5a, 0xb0, 0x1c, 0x3d, 0x19, 0xff, 0xa4, 0xbc,
  0x17, 0xc7, 0x5b, 0xbd, 0x1c, 0x77, 0x4f, 0x3d, 0xe4, 0xca, 0x82, 0xbc,
  0x75, 0xcf, 0x05, 0xbe, 0x2f, 0x13, 0x74, 0xbe, 0xf8, 0x8e, 0xe6, 0xbd,
  0xe2, 0x5b, 0x9c, 0xbc, 0xd1, 0x11, 0x5b, 0xbd, 0x8c, 0xfe, 0xa2, 0x3d,
  0xa9, 0xa0, 0xc9, 0xbd, 0x84, 0xa2, 0x86, 0xbb, 0xdf, 0x9c, 0x36, 0xbe,
  0xb3, 0xbf, 0x78, 0xbe, 0xf9, 0x7b, 0x05, 0xbe, 0xec, 0x90, 0x88, 0x3d,
  0xee, 0x6a, 0x4b, 0xbc, 0xdb, 0x2e, 0x2d, 0xbe, 0x62, 0x23, 0x6c, 0xbe,
  0x40, 0xc2, 0x13, 0xbe, 0x69, 0x64, 0x7a, 0xbc, 0x3c, 0x92, 0xd7, 0xbd,
  0xf7, 0x56, 0xe5, 0x3c, 0xb3, 0x60, 0x3c, 0x3d, 0x8d, 0x8c, 0x7d, 0xbd,
  0x89, 0xc5, 0x48, 0xbe, 0x5e, 0x36, 0x97, 0xbc, 0x4a, 0x24, 0x0d, 0xbe,
  0xa6, 0xa3, 0xcd, 0xbe, 0x3e, 0x39, 0x83, 0xbc, 0x79, 0xa9, 0x89, 0xbc,
  0x28, 0xee, 0x9b, 0xbe, 0x01, 0xb4, 0x81, 0xbe, 0x00, 0xec, 0x63, 0x3c,
  0x7a, 0x92, 0x1d, 0x3f, 0x06, 0xb6, 0x07, 0xbf, 0x48, 0x6c, 0x88, 0xbd,
  0xa9, 0x48, 0x8d, 0xbe, 0x4e, 0x11, 0x13, 0x3a, 0xf8, 0xf7, 0x79, 0xbe,
  0x9a, 0x47, 0xd1, 0x3e, 0x3c, 0xc7, 0x42, 0x3e, 0xfe, 0x95, 0x36, 0x3e,
  0x3d, 0xda, 0xae, 0xbe, 0x5f, 0x9c, 0xa1, 0xbd, 0x1c, 0x02, 0x2f, 0x3d,
  0x1a, 0x73, 0xca, 0xbe, 0xad, 0x38, 0xc8, 0x3e, 0x86, 0x4f, 0x97, 0xbe,
  0xec, 0x1b, 0x57, 0x3d, 0xc1, 0xc3, 0xc4, 0x3e, 0x4b, 0x55, 0xcd, 0xbc,
  0xdd, 0x12, 0x28, 0x3e, 0xa6, 0x87, 0xc1, 0xbe, 0x90, 0x94, 0xcf, 0x3d,
  0xd9, 0x52, 0x93, 0x3e, 0x27, 0x7b, 0x00, 0xbf, 0xc2, 0x7c, 0x6e, 0x3d,
  0x71, 0x97, 0x52, 0x3e, 0xce, 0x6a, 0xba, 0xbe, 0x20, 0x18, 0xb5, 0xbe,
  0x60, 0x73, 0x92, 0x3d, 0x96, 0xc4, 0xa9, 0xbe, 0x19, 0x9f, 0x2f, 0x3f,
  0x6e, 0xdd, 0x86, 0xbd, 0xa4, 0x61, 0x90, 0x3d, 0x56, 0x1a, 0xcd, 0x3e,
  0xa4, 0x5f, 0xbc, 0x3d, 0xd2, 0x38, 0x30, 0x3d, 0x38, 0x66, 0xa1, 0xbe,
  0x56, 0x14, 0xdc, 0x3d, 0x1c, 0x08, 0x82, 0x3e, 0x6e, 0xf4, 0x06, 0xbf,
  0xc7, 0x33, 0xbe, 0x3d, 0x06, 0x0e, 0x03, 0x3e, 0x4e, 0x45, 0x8a, 0xbe,
  0x47, 0xbd, 0xa5, 0xbe, 0x42, 0x4c, 0x0b, 0x3b, 0x8e, 0x52, 0x20, 0xbe,
  0x49, 0x7b, 0x20, 0x3f, 0x84, 0x76, 0x08, 0xbe, 0x61, 0x4c, 0x7c, 0x3b,
  0xc8, 0x7c, 0x92, 0x3d, 0x20, 0x82, 0xf6, 0x3d, 0x90, 0x89, 0x00, 0x3d,
  0x76, 0xec, 0xb6, 0xbe, 0xed, 0x00, 0x1d, 0x3d, 0x17, 0x7f, 0x7d, 0x3e,
  0x45, 0xbc, 0xe0, 0xbe, 0x3e, 0xf1, 0x70, 0x3d, 0xc1, 0xa0, 0xaa, 0x3e,
  0x19, 0x46, 0x33, 0xbe, 0x1e, 0xb4, 0x4d, 0xbe, 0xb0, 0x24, 0x9f, 0x3d,
  0xdf, 0x04, 0xce, 0xbe, 0xa6, 0x59, 0xf3, 0x3e, 0x4b, 0xd8, 0x17, 0xbe,
  0x62, 0x5e, 0x7d, 0x3d, 0xf2, 0xdc, 0xbf, 0x3e, 0xd5, 0x6e, 0x0a, 0x3e,
  0xbf, 0xc2, 0x81, 0x3b, 0xcd, 0x4d, 0x82, 0xbe, 0x62, 0xa2, 0xc2, 0x3d,
  0x61, 0xb6, 0x0b, 0x3e, 0x9e, 0x95, 0xa9, 0xbe, 0x03, 0xb1, 0xd5, 0x3d,
  0x81, 0xff, 0x4a, 0x3e, 0xb8, 0x9d, 0x91, 0xbe, 0x6d, 0x63, 0x89, 0xbe,
  0x17, 0x6c, 0x0e, 0xba, 0x7c, 0x53, 0x72, 0xbf, 0xf8, 0x30, 0x75, 0x3e,
  0xb7, 0x71, 0x98, 0xbe, 0x30, 0x87, 0x03, 0x3d, 0x35, 0xc1, 0xbb, 0x3d,
  0xef, 0x51, 0x4d, 0x3d, 0x5a, 0x3a, 0x02, 0xbf, 0xc1, 0x20, 0xe5, 0xbe,
  0x99, 0x32, 0xa3, 0xbd, 0x3d, 0x80, 0x1f, 0xbd, 0x2f, 0xe0, 0x23, 0xbf,
  0x62, 0x96, 0xb7, 0xbc, 0x5d, 0x0e, 0x66, 0x3e, 0x09, 0x24, 0xec, 0xbe,
  0x42, 0xf8, 0x0c, 0xbc, 0xa6, 0xba, 0x6f, 0x3d, 0x46, 0xf8, 0x94, 0xbe,
  0x2e, 0x61, 0xac, 0x3d, 0x8f, 0x52, 0x09, 0xbe, 0x07, 0xa0, 0x01, 0xbc,
  0x5e, 0x3c, 0x70, 0x3d, 0xe9, 0xa4, 0x89, 0xbe, 0x49, 0x3b, 0xdc, 0x3c,
  0x31, 0xe4, 0x99, 0x3c, 0x89, 0xb9, 0x16, 0xbd, 0x36, 0xbb, 0x14, 0xbd,
  0x81, 0x9b, 0x58, 0xbf, 0x23, 0xd9, 0x32, 0xbc, 0xa3, 0x82, 0x34, 0x3d,
  0xba, 0xc7, 0x80, 0x3a, 0xca, 0x42, 0x72, 0xbe, 0x54, 0x85, 0x70, 0xbd,
  0x5a, 0x8c, 0xcb, 0xbd, 0xfb, 0x74, 0x49, 0xbe, 0xd9, 0xa5, 0x07, 0xbe,
  0xa0, 0xb9, 0xb9, 0xbe, 0x20, 0x32, 0xa4, 0xbd, 0x41, 0x0e, 0x9d, 0xbe,
  0x07, 0x99, 0x9d, 0xbe, 0x41, 0x28, 0xbb, 0xbd, 0x57, 0x78, 0x27, 0xbe,
  0xdf, 0xa7, 0xbf, 0xbe, 0xac, 0x65, 0xbd, 0xbe, 0xc3, 0x5e, 0xa3, 0xbe,
  0x39, 0x46, 0x31, 0xbd, 0x79, 0xf4, 0x30, 0xbe, 0xa9, 0x23, 0x3f, 0xbe,
  0xb1, 0xba, 0xe0, 0xbd, 0x8c, 0xe0, 0x5e, 0xbe, 0xf5, 0x0a, 0xa2, 0xbe,
  0xc0, 0xe8, 0xb7, 0xbd, 0x04, 0x9c, 0x8d, 0xbe, 0x43, 0x74, 0x57, 0x3e,
  0x93, 0x91, 0xae, 0xbe, 0xa8, 0x02, 0x22, 0xbe, 0xb0, 0x69, 0x1f, 0xbe,
  0x80, 0x53, 0x95, 0x3d, 0x2d, 0x4b, 0x1d, 0xbc, 0x9b, 0x20, 0x1c, 0xbe,
  0x29, 0xeb, 0x2d, 0xbe, 0x6e, 0xaa, 0xa8, 0xbd, 0x42, 0xb9, 0xe4, 0xbd,
  0xc5, 0x31, 0xf5, 0xbd, 0x6b, 0xa2, 0x1a, 0xbe, 0xd3, 0x58, 0xa3, 0xbe,
  0x11, 0x18, 0xfe, 0xbd, 0xce, 0xf4, 0x31, 0xbe, 0x23, 0x14, 0xa3, 0xbe,
  0x66, 0xfc, 0x3f, 0x3d, 0x91, 0xec, 0x86, 0xbe, 0x75, 0x4c, 0x1c, 0xbe,
  0x7c, 0x25, 0xa1, 0xbd, 0x00, 0x9e, 0xa6, 0xbd, 0xf4, 0x75, 0x04, 0xbe,
  0x35, 0xbd, 0x93, 0x3c, 0x69, 0x23, 0xcf, 0xbe, 0x60, 0x59, 0x31, 0xbe,
  0xef, 0x7b, 0x75, 0xbe, 0x36, 0xf0, 0x07, 0xbe, 0x3c, 0x51, 0x2f, 0xbe,
  0x69, 0x18, 0x30, 0xbf, 0x07, 0xbf, 0x00, 0xbf, 0xbf, 0xb6, 0x44, 0xbe,
  0x6c, 0x87, 0xe7, 0xbe, 0xf3, 0x5d, 0x86, 0xbd, 0x03, 0x79, 0x07, 0xbf,
  0xdd, 0x6c, 0xfe, 0xbe, 0xa6, 0x28, 0xbb, 0xbe, 0xcf, 0xa3, 0xab, 0xbd,
  0xd0, 0xc4, 0xe5, 0xbe, 0x92, 0x48, 0x83, 0x3e, 0x2e, 0xa2, 0xb3, 0xbe,
  0x23, 0x16, 0x82, 0xbe, 0xb1, 0x89, 0xb9, 0xbe, 0x27, 0x51, 0xe7, 0xbe,
  0x44, 0xaa, 0x34, 0xbe, 0x06, 0xe8, 0x3b, 0x3e, 0x86, 0x88, 0xc1, 0x3d,
  0x1d, 0x9b, 0x08, 0xbe, 0x25, 0x40, 0xab, 0xbe, 0xdf, 0x34, 0x3a, 0xbd,
  0xb7, 0x4b, 0xf9, 0xbe, 0xae, 0xba, 0x77, 0xbe, 0xd8, 0x68, 0x62, 0xbe,
  0xa8, 0xc1, 0xbe, 0xbd, 0x2d, 0x8e, 0x8b, 0xbe, 0xfa, 0x5a, 0xa4, 0x3d,
  0xb3, 0x48, 0xe7, 0xbe, 0x89, 0xd3, 0x53, 0xbe, 0x84, 0x3d, 0xab, 0x3e,
  0x99, 0x5f, 0x4b, 0xbb, 0x1f, 0x20, 0x20, 0xbe, 0xc0, 0x7f, 0x84, 0x3c,
  0xc8, 0xac, 0x9b, 0x3e, 0x7b, 0x74, 0x04, 0xbf, 0xc3, 0xd4, 0xa1, 0xbe,
  0x12, 0x80, 0x05, 0xbe, 0x58, 0x7d, 0x0e, 0x3e, 0xc1, 0x76, 0x20, 0xbe,
  0x3a, 0xf8, 0xd5, 0xbd, 0x45, 0x02, 0xb5, 0x3d, 0x41, 0x34, 0x92, 0x3d,
  0xda, 0x11, 0x3e, 0x3d, 0xf6, 0xe0, 0xa6, 0xbe, 0x66, 0x5e, 0x34, 0xbd,
  0xc2, 0xeb, 0x49, 0x3e, 0xbf, 0x75, 0x6d, 0x3d, 0xb6, 0xba, 0xfa, 0x3d,
  0x99, 0x70, 0x8f, 0x3e, 0xe0, 0x31, 0x92, 0x3e, 0x84, 0x1e, 0xe7, 0xbd,
  0x19, 0x6a, 0xab, 0x3d, 0x30, 0x6b, 0x16, 0xbd, 0x9e, 0x66, 0x48, 0x3e,
  0xa1, 0xae, 0x4f, 0xbe, 0xce, 0xec, 0xe4, 0x3c, 0x30, 0xcd, 0x5b, 0xbd,
  0xef, 0x2c, 0x22, 0x3e, 0x89, 0x3f, 0x1b, 0xbd, 0x5d, 0x78, 0x13, 0xbe,
  0x84, 0x36, 0xa4, 0xbd, 0x1a, 0x19, 0x79, 0x3e, 0x79, 0x5a, 0xf4, 0x3d,
  0x7f, 0x5d, 0x6c, 0xbd, 0xc5, 0x2e, 0x11, 0xbe, 0x1d, 0x64, 0x0c, 0xbc,
  0xdf, 0x52, 0x59, 0xbe, 0xc5, 0xbd, 0xd6, 0xbe, 0x47, 0xe4, 0x8e, 0x3f,
  0xa5, 0x1f, 0x01, 0x3d, 0xe7, 0x8f, 0x58, 0x3d, 0xc1, 0x56, 0x63, 0xbe,
  0x7f, 0x0b, 0xce, 0xbe, 0x29, 0x53, 0x63, 0xbe, 0xda, 0x3d, 0x80, 0x3f,
  0x18, 0x9d, 0xad, 0xbe, 0x51, 0xfd, 0xa6, 0xbd, 0x0f, 0xda, 0x5c, 0xbd,
  0xc3, 0x67, 0x38, 0x3e, 0x3a, 0x9b, 0x0b, 0xbe, 0x8f, 0x71, 0x14, 0xbe,
  0xae, 0xab, 0x83, 0x3e, 0xc0, 0x3d, 0xd5, 0x3a, 0xee, 0x65, 0x5d, 0xbe,
  0x6b, 0xb4, 0xca, 0x3f, 0xdf, 0x9e, 0xb0, 0xbd, 0x7c, 0xc9, 0x6b, 0xbd,
  0x3f, 0x86, 0xcb, 0xbd, 0x26, 0x60, 0x47, 0xbe, 0x60, 0xef, 0x86, 0x3c,
  0x82, 0xe2, 0xce, 0x3f, 0x19, 0x71, 0x93, 0xbe, 0x7d, 0x46, 0xd6, 0x3d,
  0xce, 0x23, 0x84, 0xbe, 0xb1, 0x04, 0x02, 0x3d, 0xf0, 0xb2, 0xad, 0xbe,
  0x43, 0xa9, 0x1b, 0xbe, 0x77, 0x57, 0xcc, 0x3d, 0x9e, 0x2d, 0x81, 0x3a,
  0xe8, 0x9e, 0x86, 0xbe, 0xcc, 0xb4, 0xbf, 0x3f, 0xbe, 0x41, 0xf2, 0xbd,
  0x5c, 0x83, 0x1b, 0xbd, 0xdd, 0x25, 0x65, 0x3c, 0x5e, 0x64, 0x7e, 0xbe,
  0x4a, 0x39, 0x4f, 0xbe, 0xea, 0xe8, 0xe2, 0x3f, 0x6d, 0x05, 0xa4, 0xbe,
  0x54, 0xfd, 0x31, 0xbe, 0x5e, 0xec, 0x9e, 0x3d, 0x94, 0x84, 0x12, 0x3d,
  0xc8, 0xb9, 0x80, 0xbe, 0x6e, 0xb4, 0x60, 0xbe, 0xc1, 0xce, 0xc1, 0x3d,
  0x93, 0xa6, 0x65, 0xbe, 0x6d, 0x75, 0xc1, 0xbe, 0xeb, 0x5d, 0x9b, 0x3f,
  0x1e, 0x01, 0xb1, 0xbd, 0x82, 0xe8, 0x91, 0xbe, 0xe6, 0x3a, 0x43, 0xba,
  0xf6, 0xa2, 0xb1, 0xbe, 0xaf, 0x54, 0x12, 0xbd, 0x36, 0xac, 0xec, 0x3f,
  0xe9, 0x58, 0xfe, 0xbd, 0xee, 0x8b, 0xe5, 0x3c, 0xf0, 0x20, 0x67, 0xbe,
  0xf6, 0x71, 0x6b, 0xbd, 0xb8, 0x6e, 0xb5, 0xbd, 0x62, 0x68, 0x38, 0xbd,
  0xf4, 0x13, 0x3d, 0x3e, 0x9e, 0xf4, 0xff, 0xbd, 0x13, 0xbd, 0xb4, 0xbe,
  0x88, 0x33, 0xdf, 0x3f, 0x3b, 0xf9, 0x75, 0x3c, 0x03, 0x51, 0x77, 0x3d,
  0x9f, 0xb2, 0xc3, 0x3d, 0x21, 0x05, 0x86, 0xbe, 0x1b, 0xa7, 0x12, 0xbc,
  0xdd, 0x50, 0xd9, 0x3f, 0x09, 0xf2, 0xe0, 0x3a, 0x8a, 0x3b, 0xa6, 0xbe,
  0x94, 0x7a, 0x7a, 0xbe, 0x0c, 0xa0, 0x06, 0x3e, 0xe2, 0xbb, 0x0f, 0xbd,
  0xc6, 0x79, 0x7a, 0xba, 0x83, 0xd2, 0x3d, 0xbd, 0xb3, 0x03, 0xe5, 0x3c,
  0xaa, 0xe5, 0x06, 0xbe, 0xa9, 0x19, 0x08, 0x40, 0x81, 0x51, 0x84, 0xbe,
  0x8a, 0x18, 0x99, 0xbd, 0x71, 0xca, 0xa8, 0xbd, 0xc8, 0x9e, 0x4e, 0xbe,
  0xf2, 0x60, 0x77, 0xbc, 0x8b, 0xf3, 0xd1, 0x3f, 0xf0, 0x12, 0x4c, 0xbe,
  0xd8, 0x65, 0x24, 0x3e, 0x41, 0x2b, 0x9a, 0xbd, 0xd2, 0x14, 0x98, 0xbe,
  0xdc, 0x3f, 0x9f, 0xbe, 0xbd, 0x2a, 0x0c, 0x3d, 0x50, 0x55, 0x80, 0xbd,
  0xa7, 0xdf, 0x3a, 0xbe, 0xdf, 0x81, 0xc7, 0xbe, 0xd9, 0xe4, 0xd5, 0x3f,
  0x6b, 0x74, 0x97, 0xbe, 0x85, 0xf9, 0x3b, 0xbe, 0x17, 0xfe, 0xca, 0xbd,
  0x3d, 0xad, 0x1c, 0xbe, 0xfa, 0x42, 0x95, 0xbe, 0xa4, 0x08, 0xf2, 0x3f,
  0x99, 0x38, 0xc8, 0xbd, 0xb1, 0x19, 0xcb, 0x3d, 0x0f, 0xcf, 0x87, 0xbe,
  0x5e, 0xc8, 0x51, 0x3d, 0xa4, 0xa7, 0xfd, 0xbc, 0xae, 0x9f, 0x08, 0x3c,
  0x67, 0xd3, 0x1a, 0x3d, 0xfd, 0x33, 0x61, 0xbe, 0xee, 0xee, 0xed, 0xbd,
  0x1e, 0x5d, 0x8e, 0xbd, 0xa5, 0x83, 0x4c, 0xbe, 0xa1, 0xb5, 0xe3, 0xbd,
  0xe9, 0x4a, 0xd6, 0x3d, 0xb1, 0x76, 0x40, 0xbd, 0x52, 0xf6, 0xe4, 0xbd,
  0xbe, 0xa0, 0x18, 0x3e, 0xe1, 0x9f, 0x52, 0xbe, 0x82, 0xe9, 0x82, 0x3d,
  0x0b, 0xcd, 0x72, 0xbe, 0x7e, 0x88, 0x42, 0x3d, 0x33, 0x40, 0xc9, 0xbd,
  0x77, 0xca, 0x17, 0xbe, 0x31, 0x0e, 0x3d, 0x3c, 0x55, 0x4e, 0x77, 0x3c,
  0x82, 0x60, 0x73, 0xbe, 0x6b, 0xda, 0x38, 0x3d, 0xed, 0xfe, 0x7f, 0xbe,
  0x81, 0x1c, 0xab, 0x3d, 0xbb, 0xb4, 0xb2, 0x3d, 0xce, 0xe0, 0x4d, 0xbe,
  0xc3, 0xc3, 0x03, 0xbe, 0x62, 0x26, 0x33, 0x3d, 0x65, 0xea, 0xfb, 0xbd,
  0xc1, 0x44, 0x01, 0xbd, 0xba, 0x7e, 0x32, 0xbe, 0xfb, 0xa5, 0x00, 0x3d,
  0xd9, 0x63, 0xb8, 0xbd, 0x35, 0x4f, 0x39, 0x3e, 0x9a, 0x9f, 0x0d, 0x3d,
  0x36, 0xbc, 0x80, 0xbe, 0xd7, 0xaa, 0x0a, 0xbe, 0x0c, 0x1d, 0xcf, 0xbd,
  0x5b, 0xde, 0x8b, 0xbe, 0x31, 0xa3, 0x3e, 0xbe, 0x56, 0x9b, 0x4b, 0x3e,
  0xc2, 0x3e, 0x91, 0x3d, 0x2a, 0x9f, 0x2e, 0xbe, 0x73, 0x37, 0xb3, 0x3d,
  0xbb, 0x77, 0x40, 0xbe, 0x44, 0xac, 0xcf, 0xbd, 0x35, 0xf4, 0x95, 0x3c,
  0x5e, 0xe8, 0x1e, 0xbe, 0xd1, 0xbb, 0x71, 0xbe, 0x84, 0x2c, 0x46, 0xbe,
  0x13, 0x12, 0xa2, 0xbc, 0x2c, 0xaf, 0x33, 0x3d, 0x60, 0x31, 0xfb, 0xbd,
  0x43, 0x92, 0xa3, 0x3d, 0x23, 0x72, 0xd0, 0xbd, 0x3a, 0x73, 0xdf, 0x3d,
  0x16, 0x18, 0x3e, 0xbe, 0xc7, 0x15, 0x88, 0xbd, 0x42, 0xee, 0x00, 0xbd,
  0x28, 0x6d, 0x27, 0x3e, 0xf1, 0xde, 0x58, 0xbe, 0x98, 0xcd, 0x7d, 0xbd,
  0x58, 0x41, 0x5e, 0xbd, 0x69, 0xa9, 0x88, 0x3c, 0x8e, 0x50, 0x2c, 0xbe,
  0x1d, 0xf9, 0xef, 0x3d, 0x6e, 0x63, 0x00, 0xbe, 0x6b, 0x24, 0x62, 0x3d,
  0x24, 0x84, 0xdf, 0x3b, 0xf2, 0x14, 0x5d, 0xbe, 0xfe, 0x3e, 0x95, 0xbe,
  0x20, 0xb0, 0x15, 0x3e, 0x14, 0xff, 0xe2, 0x3d, 0x11, 0x69, 0xb4, 0xbd,
  0xb1, 0xcd, 0x24, 0xbe, 0x50, 0x2e, 0x6a, 0x3c, 0xcd, 0x3b, 0x1f, 0x3b,
  0x56, 0xf2, 0xf2, 0xbc, 0x33, 0x2b, 0x65, 0x3d, 0xdc, 0xa5, 0x69, 0xbd,
  0x0d, 0x6b, 0x8b, 0xbe, 0x18, 0x95, 0xd9, 0xbd, 0xc8, 0x80, 0x3f, 0xbe,
  0x5a, 0xa9, 0xc3, 0xbd, 0xd3, 0x49, 0x93, 0xbe, 0x60, 0x67, 0x5e, 0xbe,
  0xc1, 0x45, 0x9f, 0xbe, 0x61, 0x36, 0x0b, 0xbe, 0xc1, 0x64, 0xac, 0xbd,
  0xa7, 0xdb, 0x30, 0x3d, 0x2b, 0x6c, 0x8d, 0x3d, 0xd5, 0xe4, 0x24, 0x3d,
  0x17, 0xa9, 0xfd, 0x3c, 0xd5, 0x8f, 0xb0, 0x3d, 0xee, 0x00, 0x32, 0xbd,
  0x84, 0x49, 0x1d, 0xbe, 0xbc, 0xe3, 0x6d, 0xbe, 0x15, 0x28, 0x5f, 0xbe,
  0x90, 0x8c, 0xe0, 0x3d, 0x73, 0xa6, 0x34, 0xbe, 0x7f, 0xb8, 0x28, 0xbd,
  0x9d, 0xa3, 0xc5, 0xbd, 0x22, 0xab, 0x8c, 0xbe, 0xb3, 0x69, 0xe3, 0x3d,
  0x7b, 0xfa, 0x99, 0x3d, 0xca, 0x67, 0xac, 0x3d, 0x03, 0xce, 0x1b, 0xbe,
  0x2b, 0xc9, 0x23, 0xbe, 0xd6, 0xa8, 0x64, 0xbe, 0x87, 0xf5, 0x9a, 0xbd,
  0xa6, 0x47, 0xbc, 0x3d, 0x81, 0x57, 0x54, 0xbe, 0xfe, 0xaf, 0x41, 0xbe,
  0xe5, 0x3c, 0x4c, 0x3d, 0x93, 0x12, 0x48, 0xbb, 0x3a, 0xa9, 0xc1, 0xbd,
  0xb9, 0x54, 0x5b, 0xbe, 0xa0, 0xce, 0x16, 0xbd, 0x3d, 0x22, 0x13, 0xbe,
  0x33, 0x33, 0x0d, 0xbe, 0x7f, 0x9d, 0xf3, 0x3c, 0xbd, 0x61, 0x7f, 0x3e,
  0x91, 0x91, 0x08, 0xbe, 0xf2, 0xc9, 0xa6, 0x3e, 0x30, 0x45, 0x2a, 0xbe,
  0x70, 0xcf, 0x1e, 0xbe, 0xc2, 0x71, 0x73, 0xbd, 0x48, 0x9e, 0x96, 0xbe,
  0xdc, 0x61, 0x2c, 0xbe, 0x13, 0x0a, 0x0a, 0x3e, 0xaf, 0x8a, 0xcb, 0x3b,
  0xf4, 0x46, 0x7d, 0xbd, 0x40, 0xdc, 0x35, 0xbd, 0xc2, 0x3f, 0xa9, 0x3c,
  0x06, 0x20, 0xea, 0xbd, 0x95, 0x17, 0x3d, 0xbe, 0x76, 0x49, 0xbe, 0x3d,
  0xa0, 0x1c, 0x9b, 0x3d, 0x1e, 0xa2, 0x00, 0xbd, 0xdf, 0x2d, 0x43, 0xbd,
  0xa3, 0x70, 0x12, 0xbd, 0xf6, 0x0f, 0x86, 0xbc, 0xa3, 0x3b, 0xac, 0xbe,
  0xd0, 0x84, 0x5c, 0xbd, 0xaa, 0xa2, 0x2e, 0xbc, 0xf3, 0x68, 0x78, 0xbe,
  0x39, 0x84, 0xc7, 0x3d, 0xc2, 0xf4, 0x95, 0xbd, 0xcd, 0xac, 0x52, 0xbe,
  0xce, 0x38, 0xfe, 0x3d, 0x46, 0x14, 0xb6, 0xbd, 0xc3, 0x8b, 0xca, 0xbc,
  0xc1, 0x75, 0x04, 0x3e, 0xb6, 0x1b, 0x1d, 0xbe, 0x56, 0x11, 0xa3, 0x3d,
  0xea, 0xe4, 0x34, 0xbe, 0x4a, 0xe2, 0x96, 0x3d, 0xfd, 0x59, 0xaf, 0x3d,
  0x24, 0xfe, 0x93, 0xbd, 0xfb, 0xa6, 0x07, 0xbe, 0x80, 0x5e, 0x04, 0x3d,
  0x88, 0xae, 0x0d, 0x3d, 0xf8, 0xbf, 0x6a, 0xbc, 0x31, 0x11, 0x8b, 0xbe,
  0xad, 0x41, 0xf3, 0x3d, 0x66, 0x6a, 0x04, 0x3e, 0x16, 0x6f, 0x56, 0xbd,
  0x60, 0xa2, 0xa3, 0xbd, 0x58, 0x0f, 0x41, 0xbd, 0xc3, 0xc9, 0x3a, 0x3c,
  0xf6, 0x6d, 0x98, 0xbe, 0xd8, 0x24, 0x16, 0x3e, 0x6a, 0x9f, 0x63, 0xbe,
  0x39, 0xe5, 0x16, 0xbe, 0x28, 0x79, 0xf7, 0x3d, 0x6a, 0x8f, 0xd9, 0x3d,
  0xb1, 0x9c, 0x87, 0xbc, 0x14, 0x36, 0x20, 0xbe, 0x0b, 0xb3, 0xaa, 0xbd,
  0xc3, 0x5c, 0x8e, 0xbe, 0x2a, 0x20, 0xf2, 0x3c, 0x32, 0x6f, 0x8a, 0x3c,
  0xcb, 0xff, 0xa1, 0xbe, 0xbd, 0xe5, 0x94, 0x3d, 0x79, 0x51, 0x92, 0x3d,
  0xaf, 0x33, 0xb7, 0xbd, 0x13, 0x76, 0xe7, 0xbd, 0x97, 0xd7, 0x0d, 0xbe,
  0x29, 0xd2, 0x3b, 0x3d, 0xce, 0xd3, 0x38, 0xbe, 0xb7, 0x6d, 0xf4, 0xbd,
  0xdb, 0x59, 0xcc, 0x3d, 0x17, 0xd2, 0x19, 0x3d, 0x63, 0x4d, 0x80, 0xbe,
  0xaf, 0xc4, 0xbf, 0xbc, 0xdc, 0x12, 0x3f, 0xbe, 0xc4, 0xda, 0x1d, 0xbe,
  0xfa, 0x19, 0x81, 0xba, 0x5f, 0x9a, 0x1b, 0xbe, 0x92, 0x03, 0xac, 0x3d,
  0x3f, 0xbc, 0xd9, 0xbd, 0xf8, 0xe6, 0x0a, 0x3e, 0x78, 0x74, 0xec, 0xbd,
  0xb9, 0x39, 0x80, 0xbe, 0x28, 0xe4, 0x1b, 0xbe, 0x00, 0x1d, 0x02, 0x3e,
  0xea, 0xbe, 0x99, 0xbe, 0xb4, 0xc0, 0x0a, 0xbe, 0x42, 0x7d, 0x3b, 0x3d,
  0xb4, 0xc8, 0x4e, 0xbd, 0xd4, 0x29, 0xd2, 0x3d, 0x64, 0x86, 0x32, 0x3c,
  0xc7, 0x45, 0x8a, 0xbd, 0x99, 0x23, 0x12, 0x3e, 0x93, 0xa6, 0x85, 0xbe,
  0x56, 0x8c, 0x0e, 0x3e, 0xa1, 0x2b, 0x2f, 0xbd, 0x52, 0x02, 0x3a, 0xbe,
  0x6c, 0xee, 0x34, 0xbd, 0x68, 0x13, 0x18, 0x3e, 0x16, 0x85, 0x79, 0x3e,
  0x82, 0x4e, 0x4f, 0xbe, 0xb8, 0x25, 0x25, 0x3d, 0xda, 0xec, 0xc7, 0x3c,
  0x4c, 0x2a, 0x24, 0x3c, 0x78, 0x28, 0xd4, 0x3d, 0x0a, 0xe1, 0x2d, 0x3e,
  0xf1, 0x4a, 0xa5, 0xbe, 0x67, 0x54, 0x88, 0xbe, 0xfe, 0x8e, 0x00, 0x3e,
  0xbc, 0x00, 0x65, 0xbc, 0xd2, 0xc0, 0x24, 0x3c, 0xd5, 0xe1, 0xca, 0xbd,
  0xd7, 0xee, 0x9a, 0x3e, 0xeb, 0x48, 0x0a, 0x3e, 0x01, 0xb3, 0xa4, 0x3e,
  0x85, 0x22, 0x5c, 0xbe, 0x44, 0xc0, 0x21, 0x3e, 0x77, 0xc1, 0x91, 0xbd,
  0xcb, 0xfb, 0xe2, 0x3b, 0xe8, 0xe9, 0xb1, 0x3d, 0x28, 0x9c, 0xfc, 0xbd,
  0x50, 0xcc, 0x6a, 0x3e, 0xb0, 0xe6, 0xf6, 0xbd, 0x53, 0x89, 0x88, 0x3c,
  0x36, 0xaf, 0xfb, 0xbd, 0x28, 0xad, 0x16, 0xbc, 0x57, 0x49, 0xe5, 0xbc,
  0x46, 0x50, 0x91, 0xbc, 0x0d, 0x96, 0x9a, 0xbc, 0x64, 0x39, 0x2a, 0xbc,
  0xf4, 0x2f, 0xa9, 0xbe, 0xa1, 0xef, 0xcf, 0xbd, 0xad, 0x7f, 0x3f, 0xbd,
  0x02, 0x74, 0x38, 0x3d, 0xe4, 0x4e, 0x46, 0xbe, 0x7b, 0x7d, 0xa9, 0x3d,
  0x46, 0xeb, 0xb7, 0xbe, 0x20, 0x0d, 0x8d, 0x3e, 0x5b, 0x0a, 0xe1, 0xbd,
  0x72, 0x50, 0x1c, 0x3e, 0x84, 0x47, 0x53, 0x3e, 0x45, 0xde, 0x6d, 0xbe,
  0x2b, 0xca, 0xa8, 0xbd, 0x47, 0xce, 0x3d, 0xbe, 0x93, 0x24, 0x7c, 0xbd,
  0x04, 0x01, 0xdc, 0xbd, 0xb6, 0xf7, 0xe9, 0xbe, 0x45, 0x7e, 0x8c, 0x3d,
  0x58, 0x43, 0x60, 0x3e, 0x2b, 0x1f, 0x64, 0xbe, 0x69, 0x62, 0xbd, 0xbe,
  0x4c, 0x79, 0xe7, 0xbb, 0x40, 0xd6, 0x52, 0xbe, 0x5f, 0xc7, 0x3b, 0x3d,
  0x8d, 0x71, 0xaa, 0xbd, 0xdb, 0xbf, 0x37, 0xbc, 0x6a, 0x9f, 0x68, 0xbe,
  0x2c, 0xba, 0x9d, 0xbe, 0x58, 0x0d, 0x13, 0xbe, 0x7e, 0xd5, 0x8b, 0xbe,
  0xfd, 0x84, 0xc0, 0x3d, 0x7e, 0x8d, 0x14, 0xbe, 0x3e, 0x42, 0x54, 0xbe,
  0xa2, 0x07, 0x86, 0xbb, 0x03, 0x05, 0xf3, 0xbc, 0x6d, 0x16, 0x68, 0xbe,
  0xcb, 0x50, 0x13, 0xbe, 0x29, 0xe6, 0x81, 0x3c, 0x36, 0x2e, 0x53, 0xbe,
  0x87, 0xf4, 0x60, 0xbd, 0x3c, 0x00, 0x0d, 0xbe, 0x17, 0x25, 0x4c, 0xbc,
  0x0a, 0x1d, 0x95, 0xbe, 0x51, 0x7c, 0x8f, 0xbe, 0xde, 0x2c, 0x0f, 0x3c,
  0xfb, 0x2e, 0x33, 0xbe, 0xbe, 0xbc, 0xbb, 0x3c, 0x83, 0x5a, 0x86, 0x3d,
  0xd2, 0x72, 0xc9, 0xbe, 0x0a, 0xf2, 0x25, 0x3e, 0xb1, 0xbd, 0x13, 0x3e,
  0x10, 0x98, 0x9b, 0xbe, 0x20, 0xca, 0x84, 0xbe, 0x4c, 0x65, 0xdf, 0x3d,
  0xf6, 0xdc, 0x62, 0xbe, 0x74, 0xa0, 0x92, 0x3e, 0x34, 0x1e, 0x97, 0xbe,
  0xb5, 0x66, 0x22, 0xbd, 0xb3, 0x42, 0x6c, 0xbe, 0xa7, 0x14, 0x47, 0x3c,
  0x65, 0x8d, 0xd8, 0xbd, 0x35, 0xc9, 0x81, 0xbe, 0xf9, 0xb6, 0x15, 0xbe,
  0xcc, 0x5e, 0x5d, 0x3c, 0x1a, 0x0a, 0x14, 0xbe, 0xea, 0x2f, 0xbc, 0xbd,
  0x97, 0x50, 0x17, 0xbe, 0x6f, 0x6a, 0x84, 0xbd, 0xaf, 0x89, 0x0d, 0x3d,
  0x41, 0x1a, 0xc7, 0xbc, 0x8a, 0xe1, 0x47, 0xbd, 0xb1, 0xdc, 0x8b, 0x3d,
  0x89, 0x44, 0x86, 0xbd, 0x50, 0x73, 0x9a, 0xbc, 0xa0, 0xd2, 0x3f, 0xbd,
  0x6a, 0xf5, 0x8b, 0xbd, 0x42, 0x13, 0xdf, 0x3b, 0x4e, 0x48, 0x90, 0xbd,
  0xdd, 0xbf, 0x0e, 0xbe, 0x2f, 0x51, 0x86, 0x3d, 0xd8, 0xa2, 0xdb, 0xbe,
  0x58, 0x42, 0x16, 0xbb, 0x9a, 0xe7, 0x30, 0xbd, 0xe4, 0xa5, 0x73, 0xbd,
  0x79, 0xb6, 0x00, 0xbe, 0x51, 0x4b, 0xb1, 0x3d, 0x55, 0x80, 0x97, 0xbc,
  0x60, 0x19, 0x5f, 0xbe, 0x9e, 0xed, 0x5c, 0xbd, 0xa5, 0x5b, 0x4a, 0xbe,
  0xbe, 0x64, 0x72, 0x3d, 0x0c, 0x05, 0x3f, 0xbe, 0x7e, 0xd0, 0x68, 0x3d,
  0x25, 0x95, 0x2b, 0xbc, 0x0a, 0x2e, 0xbb, 0x3d, 0x96, 0x6d, 0x76, 0x3d,
  0x68, 0x50, 0x39, 0x3e, 0x50, 0x40, 0xc4, 0xbd, 0x24, 0xa6, 0x11, 0xbe,
  0x67, 0xa3, 0x43, 0x3d, 0x29, 0x9f, 0xe8, 0x3b, 0x84, 0x18, 0x5a, 0xbd,
  0x63, 0x10, 0x98, 0x3d, 0x73, 0x1b, 0x49, 0xba, 0xc0, 0x55, 0xc1, 0xbd,
  0x94, 0xfe, 0x6f, 0xbb, 0xac, 0xd1, 0x47, 0x3d, 0xb4, 0x58, 0xf7, 0xbd,
  0x01, 0x94, 0xa9, 0xbc, 0x71, 0x1d, 0xfb, 0xbd, 0x61, 0xbe, 0x81, 0xbe,
  0xf1, 0x98, 0x16, 0xbe, 0x19, 0xdc, 0x8f, 0xbd, 0xf9, 0x46, 0xb2, 0xbd,
  0x49, 0x33, 0x06, 0xbe, 0x61, 0xc5, 0xb1, 0xbc, 0x2b, 0x17, 0x81, 0xbe,
  0x33, 0x62, 0x4f, 0xbe, 0x66, 0x36, 0x25, 0x3d, 0x04, 0xee, 0xc4, 0xbd,
  0x74, 0x05, 0x19, 0xbe, 0x16, 0x20, 0xc0, 0xba, 0x54, 0x57, 0x73, 0x3d,
  0x5f, 0x29, 0xe1, 0xbd, 0xd4, 0x99, 0xcc, 0x3d, 0x4e, 0x54, 0x65, 0x3d,
  0x5f, 0x58, 0xfd, 0x3b, 0xbe, 0xbd, 0x59, 0xbd, 0xfe, 0x2a, 0x91, 0xbd,
  0x0b, 0x7d, 0xf0, 0x3b, 0x53, 0x12, 0xd6, 0xbd, 0x94, 0xae, 0x04, 0xbe,
  0x15, 0x89, 0x42, 0xbe, 0xd3, 0x85, 0x63, 0xbe, 0x4b, 0xd3, 0x2c, 0x3e,
  0x5a, 0x62, 0xf0, 0x3d, 0x2b, 0x7a, 0x2e, 0x3c, 0x5a, 0x7d, 0xe9, 0x3b,
  0x3d, 0xde, 0xc6, 0xbc, 0x1d, 0x3d, 0x03, 0xbe, 0x63, 0x36, 0x24, 0xbe,
  0x76, 0x96, 0xcd, 0xbd, 0xb4, 0xfb, 0x49, 0xbe, 0x00, 0x13, 0x8c, 0x3c,
  0xdf, 0xb3, 0x0a, 0x3e, 0x0a, 0xea, 0x33, 0xbd, 0xad, 0x4d, 0x16, 0xbd,
  0x8f, 0xa2, 0x1f, 0xbe, 0x04, 0x6d, 0x57, 0xbe, 0x6f, 0xe4, 0x13, 0x3e,
  0xb3, 0x1e, 0x34, 0xbe, 0x04, 0x88, 0xb2, 0xbc, 0x8d, 0xfd, 0xd9, 0xbd,
  0x49, 0x30, 0x44, 0xbe, 0xd6, 0x93, 0xa4, 0xbd, 0x6d, 0x00, 0x84, 0xbe,
  0xfa, 0xc3, 0x4c, 0xbd, 0x24, 0xd6, 0x53, 0xbe, 0x4a, 0x6e, 0x27, 0xbd,
  0x50, 0xaa, 0x09, 0x3e, 0x0f, 0x14, 0xb5, 0x3c, 0xc4, 0x32, 0x6c, 0x3d,
  0x4d, 0x02, 0x1e, 0xbe, 0x16, 0x86, 0x2c, 0xbe, 0x81, 0x69, 0x8d, 0xbc,
  0x83, 0x76, 0x78, 0xbe, 0xd3, 0xc6, 0x03, 0xbe, 0x81, 0x63, 0x23, 0xbe,
  0xa7, 0x04, 0x9c, 0x3c, 0x13, 0x00, 0x7b, 0x3d, 0x7f, 0x4e, 0x35, 0xbe,
  0xc6, 0x92, 0x79, 0xbd, 0x77, 0xf8, 0xd9, 0xbd, 0xc1, 0xd9, 0x3f, 0xbe,
  0x3b, 0x1c, 0xdf, 0xbd, 0x83, 0xf3, 0x1a, 0x3d, 0x28, 0xc4, 0x1a, 0xbe,
  0x8c, 0x38, 0x85, 0xbe, 0x07, 0x33, 0x8e, 0x3d, 0xed, 0xc5, 0xd7, 0x3d,
  0xd8, 0x72, 0xe9, 0xbc, 0xdd, 0x84, 0x82, 0xbe, 0xf4, 0x94, 0x2b, 0xbe,
  0x2f, 0x95, 0x26, 0xbe, 0xe4, 0x55, 0x50, 0xbe, 0xf5, 0xf6, 0x89, 0xbe,
  0xdc, 0x2b, 0xe0, 0xbd, 0x63, 0x30, 0x5d, 0xbd, 0x02, 0xaf, 0xc5, 0x3b,
  0xd2, 0x60, 0x7d, 0xbd, 0xf7, 0x37, 0xe5, 0xbd, 0x2e, 0xdf, 0x9f, 0xbe,
  0xa1, 0x5f, 0x33, 0xbc, 0xff, 0x72, 0x80, 0xbe, 0x84, 0x3d, 0x90, 0xbd,
  0x1e, 0x3d, 0xc7, 0x3c, 0x19, 0x3f, 0xf8, 0x3d, 0x43, 0x30, 0x82, 0xbd,
  0xeb, 0x2e, 0x43, 0x3d, 0x76, 0x2c, 0x68, 0x3e, 0xca, 0xec, 0x32, 0xbe,
  0x51, 0x78, 0x8b, 0xbe, 0x09, 0x65, 0x5e, 0xbe, 0x10, 0x67, 0xe7, 0x3d,
  0x03, 0x0f, 0x55, 0xbd, 0x0a, 0x47, 0x2e, 0xbc, 0x28, 0xdf, 0x9a, 0x3e,
  0xaa, 0x28, 0x12, 0x3e, 0xad, 0x5a, 0x99, 0xbe, 0xc4, 0x5d, 0x9e, 0xbe,
  0x40, 0x2b, 0xf1, 0x3d, 0x53, 0x44, 0x23, 0x3d, 0x17, 0xfd, 0x85, 0x3c,
  0xf6, 0x4c, 0x8b, 0x3d, 0x18, 0xdf, 0x89, 0xbe, 0xe2, 0x6d, 0x29, 0xbc,
  0x40, 0x95, 0xb9, 0xbd, 0x14, 0x21, 0x27, 0x3d, 0xa2, 0xd9, 0xc4, 0x3e,
  0xab, 0x9a, 0x00, 0x3e, 0xa8, 0x49, 0x52, 0x3d, 0x3b, 0x0a, 0x66, 0x3d,
  0xc9, 0xa7, 0xb7, 0xbd, 0xcf, 0x43, 0x27, 0xbe, 0xc2, 0xeb, 0x6e, 0xbd,
  0x99, 0x40, 0x3a, 0x3e, 0x81, 0xfa, 0xd8, 0x3d, 0xd6, 0x3c, 0x50, 0x3e,
  0x77, 0x78, 0xfc, 0xbd, 0x47, 0x43, 0xe5, 0xbd, 0x1b, 0xd8, 0x0d, 0xbf,
  0xbc, 0x4c, 0x09, 0xbf, 0x65, 0x7b, 0xbd, 0x3d, 0xdf, 0x88, 0xed, 0x3d,
  0x84, 0xa2, 0x9f, 0x3e, 0x4d, 0x99, 0xd1, 0xbd, 0xe6, 0xaf, 0x1a, 0xbd,
  0x6d, 0x0b, 0xf8, 0xbb, 0xad, 0xf5, 0x0c, 0xbe, 0x76, 0x4d, 0xd0, 0xbe,
  0x45, 0x82, 0xe4, 0x3d, 0x6f, 0xf1, 0xb6, 0x3e, 0x97, 0x2d, 0xcd, 0xbe,
  0x85, 0xa0, 0x8f, 0xbe, 0x90, 0x82, 0xee, 0xbe, 0x35, 0x27, 0x57, 0xbd,
  0x0f, 0xb2, 0xc4, 0xbe, 0xce, 0x6b, 0xb6, 0xbe, 0x28, 0x3a, 0xde, 0xbe,
  0x50, 0x48, 0x6c, 0x3d, 0xfc, 0xad, 0xef, 0x3d, 0x2b, 0xb5, 0x23, 0xbf,
  0x09, 0xf1, 0x43, 0x3e, 0xbc, 0xd3, 0x9d, 0xbe, 0xb0, 0x94, 0xc1, 0xbd,
  0xfe, 0x61, 0x40, 0xbe, 0xf5, 0x31, 0xb0, 0x3d, 0x19, 0x62, 0xe8, 0x3d,
  0x38, 0x73, 0xf4, 0xbe, 0xea, 0x4a, 0xb5, 0xbe, 0x49, 0x89, 0x6f, 0xbe,
  0x13, 0x0f, 0x9e, 0xbd, 0x8a, 0x1a, 0x65, 0xbe, 0x23, 0x14, 0x2b, 0xbe,
  0xfa, 0x72, 0x99, 0xbd, 0xec, 0x82, 0x18, 0x3c, 0x6b, 0xc2, 0x20, 0xbd,
  0x84, 0x48, 0x59, 0xbe, 0x9b, 0x1d, 0x0c, 0xbd, 0x52, 0xe4, 0xf3, 0xbc,
  0xcb, 0xb1, 0x03, 0xbe, 0x76, 0xd9, 0x0c, 0xbe, 0x8d, 0xa7, 0x21, 0xbe,
  0x07, 0x91, 0xbf, 0xbc, 0x29, 0xf9, 0x8b, 0xbd, 0x77, 0x81, 0x8c, 0xbd,
  0x08, 0xbb, 0x9b, 0xbe, 0xe8, 0x4c, 0xd4, 0xbd, 0x09, 0x6c, 0xa2, 0xbe,
  0x87, 0x73, 0x91, 0xbe, 0xce, 0x69, 0xa5, 0xbd, 0x46, 0xab, 0x75, 0x3d,
  0xf7, 0x7d, 0x08, 0xbc, 0x93, 0x9f, 0x48, 0x3d, 0x6a, 0x06, 0xee, 0x3c,
  0x71, 0xea, 0x20, 0xbe, 0xb8, 0xe5, 0xba, 0xbd, 0x29, 0xb1, 0x78, 0xbe,
  0x94, 0xdf, 0x47, 0xbe, 0xe7, 0xce, 0x1b, 0x3d, 0x45, 0x18, 0x0b, 0x3d,
  0xd7, 0xe8, 0x5e, 0xbe, 0x17, 0xb5, 0x23, 0xbd, 0xa0, 0x51, 0x94, 0xbd,
  0x16, 0x80, 0xf5, 0x3d, 0x57, 0x72, 0xc1, 0x3d, 0xf9, 0xbc, 0xed, 0xbd,
  0xb5, 0x20, 0xfb, 0xbb, 0xa6, 0x1b, 0xd1, 0x3d, 0x09, 0xae, 0x98, 0x3c,
  0xce, 0x41, 0xcf, 0xbc, 0x6e, 0x7e, 0x80, 0xbb, 0x0e, 0x3a, 0xcb, 0xbd,
  0x10, 0xc5, 0x43, 0xbd, 0xcc, 0x24, 0x82, 0xbd, 0x20, 0xeb, 0x6e, 0x3b,
  0x99, 0xd5, 0x67, 0xbd, 0x2e, 0xca, 0x50, 0x3d, 0x38, 0x69, 0xfe, 0x3d,
  0xf1, 0x4f, 0x0c, 0x3e, 0xa1, 0x7c, 0x6d, 0xbe, 0x5f, 0x8d, 0x1a, 0xbb,
  0xed, 0xc9, 0x26, 0xbe, 0xe0, 0x9a, 0x31, 0xbe, 0xd9, 0xed, 0x47, 0xbe,
  0x8e, 0xec, 0x52, 0x3d, 0x9a, 0x07, 0x86, 0xbe, 0x8d, 0x90, 0x4b, 0xbd,
  0xf2, 0x88, 0x59, 0xbe, 0x8d, 0x43, 0x81, 0xbd, 0xeb, 0x3e, 0x82, 0xbe,
  0xe9, 0x0d, 0x59, 0xbe, 0x6d, 0x03, 0xe6, 0x3d, 0x91, 0xc1, 0x30, 0xbe,
  0xba, 0xbc, 0xeb, 0xbd, 0xf2, 0xde, 0xf8, 0xbd, 0x8e, 0x51, 0xf8, 0xba,
  0x6d, 0x6a, 0xef, 0xbd, 0x02, 0x57, 0x37, 0xbe, 0x7a, 0xb0, 0x46, 0xbe,
  0x29, 0x60, 0x27, 0xbe, 0xfd, 0x0c, 0x33, 0xbd, 0x7a, 0x84, 0x9f, 0xbb,
  0x23, 0x24, 0xf9, 0xbc, 0x39, 0x3c, 0xa1, 0xbd, 0x6c, 0xb8, 0x65, 0xbc,
  0x41, 0x02, 0x2a, 0xbe, 0x54, 0x76, 0x80, 0xbe, 0x5d, 0x5f, 0x06, 0xbe,
  0x51, 0x4f, 0xdf, 0x3c, 0x32, 0xdb, 0x6c, 0xbe, 0xac, 0xc5, 0xb3, 0xbe,
  0xd3, 0x17, 0x0a, 0x3e, 0x5b, 0x99, 0x96, 0xbc, 0x22, 0x40, 0xf8, 0xbd,
  0x7f, 0x4a, 0x33, 0xbe, 0x53, 0xb3, 0x1e, 0x3e, 0x97, 0xab, 0x91, 0xbd,
  0xde, 0x25, 0x43, 0xbd, 0x7f, 0x5e, 0xea, 0x3d, 0x57, 0xb0, 0xfa, 0xbd,
  0xe6, 0xf5, 0x84, 0xbe, 0xa8, 0xf6, 0x17, 0xbc, 0x31, 0x9e, 0xf8, 0xbd,
  0xde, 0x5d, 0xfc, 0xbd, 0x13, 0x90, 0x29, 0x3e, 0xcb, 0x7a, 0x47, 0xbe,
  0x56, 0xcf, 0x49, 0xbe, 0x33, 0x95, 0x44, 0xbe, 0x47, 0x7e, 0xad, 0x3d,
  0xfc, 0x0f, 0x2c, 0x3c, 0x8a, 0x46, 0x8e, 0xbe, 0x90, 0x15, 0x06, 0x3d,
  0xe5, 0xee, 0x20, 0xbd, 0xf7, 0xe9, 0x8a, 0xbe, 0x9f, 0x1e, 0x1e, 0x3e,
  0xa8, 0x7c, 0x55, 0xbe, 0x2d, 0x91, 0x78, 0x3e, 0x70, 0x0b, 0xbb, 0xbd,
  0x6a, 0xd3, 0x5a, 0x3d, 0xc9, 0xd2, 0x48, 0x3e, 0x47, 0x7b, 0x60, 0xbe,
  0xf0, 0x8c, 0xc7, 0x3d, 0x8f, 0x3e, 0x45, 0x3d, 0x92, 0xb1, 0x7c, 0xbd,
  0xf1, 0x28, 0x1f, 0xbd, 0x8a, 0xdf, 0xdb, 0x3d, 0x15, 0xce, 0x12, 0xbe,
  0x47, 0x3a, 0x24, 0xbe, 0x43, 0xac, 0x9a, 0xbe, 0x73, 0x6a, 0x53, 0xbd,
  0xdc, 0x86, 0xa9, 0x3d, 0x02, 0x2c, 0x16, 0x3e, 0x82, 0x36, 0x8b, 0x3d,
  0xad, 0xac, 0x0a, 0xbe, 0x55, 0x71, 0xef, 0x3d, 0x2d, 0xec, 0x68, 0x3e,
  0x21, 0x40, 0x76, 0xbe, 0x54, 0xc8, 0x8b, 0x3d, 0x16, 0xfc, 0xff, 0xbd,
  0xdd, 0x75, 0x8d, 0xbe, 0xbd, 0x58, 0x63, 0xbe, 0x8c, 0x6b, 0x10, 0xbe,
  0xbb, 0x79, 0x0b, 0xbe, 0x90, 0xaa, 0x21, 0xbe, 0x20, 0xc9, 0xc9, 0xbd,
  0xe0, 0xb5, 0xef, 0x3c, 0x44, 0x9d, 0x29, 0x3d, 0x70, 0x30, 0xc8, 0x3d,
  0xf7, 0x30, 0x29, 0xbe, 0x00, 0x5d, 0xc9, 0xbd, 0x02, 0x18, 0x75, 0x3d,
  0x7f, 0x4b, 0x31, 0xbe, 0xdb, 0x47, 0xa3, 0xbd, 0x13, 0xaa, 0xa7, 0xbc,
  0xd4, 0x8b, 0x75, 0x3d, 0x1a, 0x88, 0x61, 0x3d, 0x8f, 0x08, 0x57, 0xbd,
  0x4a, 0xae, 0xa9, 0xbd, 0xd7, 0x1e, 0x1c, 0x3d, 0x0e, 0xc6, 0x87, 0x3d,
  0x12, 0xd8, 0xaf, 0x3c, 0xa8, 0xcb, 0x80, 0xbe, 0xb1, 0x3c, 0x47, 0xbe,
  0xcf, 0x0c, 0x50, 0xbe, 0xc1, 0x89, 0xd4, 0x3d, 0x67, 0x2d, 0xb9, 0x3d,
  0xbf, 0x2c, 0x1d, 0xbe, 0xe0, 0xb4, 0x22, 0xbe, 0x1c, 0x64, 0xd9, 0xbd,
  0xa1, 0x4d, 0x55, 0xbe, 0x9e, 0x35, 0x46, 0xbd, 0x87, 0xc2, 0x00, 0xbe,
  0x2c, 0x17, 0x4f, 0xbd, 0x54, 0x09, 0x89, 0xbe, 0xdd, 0xe1, 0x14, 0xbf,
  0x0e, 0x67, 0xb8, 0xbd, 0xa8, 0x49, 0x1d, 0xbe, 0x51, 0x7b, 0x58, 0xbe,
  0x6e, 0x3e, 0x1e, 0xbe, 0x54, 0x3c, 0x5f, 0xbd, 0xc3, 0xb1, 0x66, 0xbe,
  0x71, 0x87, 0x75, 0xbe, 0xce, 0x2d, 0xc2, 0xbe, 0xe8, 0x36, 0xfb, 0x3d,
  0x2d, 0x92, 0x11, 0xbe, 0xf1, 0xc9, 0xa5, 0xbe, 0x86, 0xb4, 0xa9, 0xbd,
  0xe8, 0xcb, 0x58, 0x3d, 0x2e, 0x5f, 0x96, 0x3d, 0x23, 0x9f, 0x05, 0xbe,
  0xd4, 0x46, 0xee, 0xbe, 0x22, 0x4d, 0x16, 0x3e, 0x4e, 0x47, 0x8a, 0xbe,
  0xc4, 0xb0, 0x00, 0xbe, 0x7e, 0x45, 0xa7, 0xbc, 0x33, 0x49, 0x50, 0x3d,
  0xfa, 0x95, 0xb3, 0xbd, 0x7a, 0x51, 0xe2, 0xbd, 0xc6, 0x2e, 0x23, 0xbe,
  0x74, 0xcc, 0xcd, 0x3d, 0x5f, 0xdd, 0x0b, 0xbe, 0xb0, 0x89, 0x6b, 0xbd,
  0xfc, 0x0d, 0xcd, 0xbc, 0x0a, 0xc5, 0xbc, 0xbe, 0xbe, 0x5c, 0x0c, 0x3e,
  0x18, 0xba, 0x1a, 0xbc, 0x81, 0xd5, 0x15, 0xbf, 0x96, 0xdb, 0xfb, 0x3d,
  0x4e, 0x18, 0x75, 0xbe, 0xbf, 0x0b, 0x64, 0xbe, 0x3c, 0xe7, 0x8d, 0xbe,
  0x83, 0x86, 0xb1, 0xbd, 0xfc, 0x88, 0xb8, 0xbd, 0xa4, 0xc2, 0xd5, 0x3d,
  0x1c, 0x5e, 0xc2, 0xbe, 0x1f, 0x11, 0x75, 0x3d, 0xc1, 0xf0, 0x8c, 0xbe,
  0x5a, 0x8a, 0x1b, 0xbe, 0x50, 0x11, 0x0b, 0xbe, 0x79, 0x97, 0x8d, 0xbe,
  0xa7, 0xcd, 0xb9, 0xbe, 0x5f, 0xcb, 0x4b, 0xbe, 0x73, 0xa2, 0x0f, 0xbf,
  0x9a, 0xbe, 0x34, 0xbe, 0x0f, 0x4b, 0x16, 0xbf, 0x39, 0x46, 0x0f, 0xbf,
  0x2f, 0x77, 0x47, 0xbc, 0xf6, 0xd4, 0x19, 0xbe, 0xd1, 0xf6, 0x08, 0xbf,
  0x6f, 0x8b, 0xed, 0xbc, 0x50, 0x36, 0x3c, 0xbe, 0x8b, 0x96, 0x4b, 0xbe,
  0x7d, 0x3e, 0x25, 0x3e, 0xdc, 0xf4, 0x38, 0xbe, 0xa0, 0x65, 0x06, 0xbe,
  0x6d, 0xbd, 0x72, 0x3d, 0x6f, 0x68, 0x49, 0x3e, 0x24, 0x18, 0xcc, 0xbe,
  0xa2, 0x6a, 0xc3, 0xbe, 0x9d, 0xb8, 0x52, 0xbe, 0xaf, 0x8e, 0xc8, 0x3d,
  0x2d, 0x22, 0x0b, 0xbe, 0x93, 0xdd, 0xe6, 0xbd, 0xea, 0xf9, 0x53, 0xbd,
  0xc4, 0xdf, 0x34, 0x3e, 0x21, 0x3e, 0xfa, 0x3d, 0x7e, 0xa6, 0xba, 0xbe,
  0x81, 0x99, 0x36, 0xbe, 0xc8, 0xee, 0xb0, 0x3e, 0x9b, 0xb0, 0xe8, 0x3d,
  0x86, 0xca, 0x33, 0xbc, 0x97, 0x53, 0x38, 0x3d, 0x95, 0x2e, 0x29, 0x3e,
  0xcd, 0x6c, 0xc4, 0xbd, 0xf8, 0xdc, 0x8a, 0xbe, 0x02, 0xe5, 0xcd, 0xbd,
  0xd1, 0x01, 0x50, 0x3d, 0xc4, 0x00, 0x37, 0xbe, 0x18, 0x47, 0x29, 0xbc,
  0x6e, 0x09, 0xfb, 0x3d, 0x5d, 0x78, 0x36, 0x3e, 0x7e, 0x25, 0x82, 0x3d,
  0xa4, 0xa8, 0x30, 0xbe, 0x30, 0x66, 0x14, 0xbd, 0x70, 0x39, 0x8b, 0x3e,
  0xcc, 0x96, 0x77, 0x3d, 0xc5, 0x25, 0xba, 0x3d, 0x9b, 0xed, 0xc3, 0x3d,
  0xb3, 0x25, 0xc7, 0x3d, 0x31, 0x31, 0xdf, 0xbb, 0x71, 0xe6, 0xc4, 0x3d,
  0xd4, 0x98, 0xbd, 0xbb, 0xd8, 0x4c, 0xa8, 0xbc, 0x90, 0x59, 0xe3, 0xbb,
  0x28, 0x5c, 0x86, 0x3d, 0xc1, 0x3f, 0x46, 0x3d, 0x6d, 0x88, 0x4b, 0x3d,
  0x48, 0x78, 0x8b, 0x3e, 0x38, 0x9e, 0xa6, 0x3c, 0x01, 0x54, 0xb5, 0x3d,
  0xa8, 0x02, 0x4b, 0x3e, 0xa6, 0x3a, 0xd3, 0xbd, 0xe0, 0x4e, 0x98, 0xbd,
  0x77, 0x76, 0xd4, 0xbd, 0x70, 0xd3, 0xe2, 0x3d, 0x01, 0x33, 0x6e, 0xbe,
  0xde, 0x84, 0xdc, 0xbe, 0x29, 0xd0, 0x08, 0x3d, 0x46, 0xae, 0xc2, 0xbe,
  0x9f, 0x2b, 0xd0, 0xbe, 0x89, 0x61, 0x91, 0xbe, 0xc1, 0x56, 0x20, 0xbe,
  0x25, 0xeb, 0x86, 0x3d, 0x6a, 0x84, 0x3b, 0xbe, 0xb3, 0x23, 0x1c, 0xbe,
  0x33, 0x68, 0x81, 0x3d, 0x3e, 0x24, 0xbf, 0x3b, 0x46, 0x67, 0xa0, 0xbe,
  0x86, 0x04, 0xb3, 0xbd, 0x1d, 0x92, 0x15, 0xbd, 0x4a, 0x1d, 0x54, 0xbc,
  0x40, 0xa0, 0x1e, 0x3d, 0x40, 0x9a, 0xb0, 0xbe, 0xb4, 0x43, 0xdd, 0xbd,
  0x72, 0xeb, 0xf9, 0xbd, 0x97, 0xfd, 0x9d, 0xbe, 0x18, 0x4e, 0x8b, 0xbe,
  0x42, 0x1f, 0xe4, 0xbd, 0xaa, 0x56, 0x23, 0x3d, 0x14, 0xaf, 0xf3, 0xbb,
  0xf7, 0x66, 0x62, 0xbd, 0x87, 0xdc, 0xe7, 0x3d, 0x25, 0x72, 0x68, 0x3b,
  0x75, 0xd7, 0x9b, 0x3d, 0xa3, 0x20, 0x9f, 0xbc, 0x84, 0xc1, 0x8b, 0xbe,
  0xd5, 0x05, 0xbc, 0x3d, 0x11, 0x4b, 0x97, 0xbe, 0x4e, 0x26, 0xc5, 0xbe,
  0x7e, 0x3b, 0x69, 0xbe, 0xdf, 0x5f, 0x16, 0xbe, 0xd1, 0xb6, 0x0f, 0xbe,
  0x10, 0xfa, 0x76, 0xbe, 0x43, 0x90, 0x6f, 0xbe, 0xe9, 0x66, 0xbb, 0xbd,
  0xca, 0xc5, 0x1b, 0x3d, 0x53, 0xc1, 0x5e, 0xbe, 0x37, 0x2d, 0x82, 0xbc,
  0x28, 0xa4, 0x7d, 0xbc, 0x3e, 0x08, 0xb6, 0xbd, 0x0a, 0x92, 0x38, 0xbe,
  0x70, 0x6e, 0x02, 0xbf, 0xd8, 0x6f, 0xa0, 0xbe, 0x21, 0xbc, 0x20, 0xbd,
  0x2f, 0x41, 0xf9, 0xbe, 0x64, 0x15, 0x21, 0x3b, 0xf5, 0xd6, 0x8f, 0xbe,
  0xc1, 0x34, 0x7a, 0xbe, 0x49, 0x82, 0x5f, 0xbe, 0x82, 0xeb, 0x56, 0xbe,
  0x30, 0x47, 0x6b, 0xbe, 0x6a, 0x2c, 0xdd, 0x3c, 0x83, 0x0e, 0xb9, 0xbd,
  0xf5, 0x2e, 0xa2, 0xbe, 0xe7, 0x67, 0xe6, 0xbd, 0xdc, 0x70, 0x1f, 0xbe,
  0x02, 0xe9, 0xa4, 0xbd, 0x93, 0x7d, 0x10, 0x3d, 0xed, 0x38, 0x9b, 0xbd,
  0xf9, 0x89, 0x68, 0xbe, 0xe1, 0x3c, 0xf8, 0xbe, 0xe2, 0xbc, 0x63, 0xbe,
  0x57, 0x71, 0xc6, 0xbe, 0xa3, 0x7f, 0x6b, 0xbd, 0xb5, 0xef, 0xf3, 0xbd,
  0xa1, 0x11, 0x91, 0x3d, 0x2f, 0xdd, 0x78, 0xbd, 0x8d, 0x99, 0xcf, 0xb9,
  0xd2, 0x06, 0xa0, 0xbe, 0xcf, 0x29, 0x3b, 0x3d, 0x50, 0x28, 0x42, 0x3e,
  0x58, 0xa0, 0xf5, 0x3c, 0xa4, 0x87, 0xd8, 0xbd, 0x7f, 0x7d, 0x16, 0x3e,
  0x6d, 0xa1, 0x04, 0x3e, 0x35, 0xd7, 0x80, 0xbe, 0x89, 0x86, 0x40, 0xbe,
  0x9c, 0xaa, 0xbc, 0xbd, 0x59, 0x71, 0xf0, 0x3d, 0xb5, 0xfe, 0x01, 0xbe,
  0x2c, 0xc7, 0xf2, 0xbb, 0x6c, 0x4f, 0x9c, 0x3d, 0x39, 0x5f, 0xa5, 0x3e,
  0xd7, 0x5f, 0xca, 0xbc, 0xad, 0x0f, 0x9c, 0xbe, 0xf7, 0x15, 0x23, 0x3e,
  0x8d, 0xd6, 0x1c, 0x3e, 0x45, 0xee, 0xc9, 0x3d, 0x53, 0x81, 0x47, 0x3d,
  0x81, 0xda, 0xc2, 0xbc, 0x60, 0x86, 0x83, 0x3c, 0x9f, 0xb7, 0x87, 0xbd,
  0x41, 0x27, 0xd4, 0x3d, 0xbd, 0xbf, 0xdb, 0xbd, 0xe8, 0x1e, 0x47, 0x3d,
  0x2a, 0x6a, 0x30, 0x3e, 0x0d, 0xa6, 0xc7, 0x3d, 0x8b, 0x2d, 0xde, 0x3c,
  0xff, 0xe5, 0xe1, 0xbd, 0xf5, 0x42, 0xe5, 0xbd, 0x76, 0xf8, 0x0b, 0x3c,
  0x06, 0x4a, 0xae, 0x3c, 0x72, 0x2c, 0xc2, 0x3e, 0x4a, 0xfe, 0xff, 0xff,
  0x10, 0x00, 0x00, 0x00, 0x05, 0x00, 0x00, 0x00, 0x14, 0x00, 0x00, 0x00,
  0x2c, 0x00, 0x00, 0x00, 0x02, 0x00, 0x00, 0x00, 0x10, 0x00, 0x00, 0x00,
  0x70, 0x00, 0x00, 0x00, 0x17, 0x00, 0x00, 0x00, 0x73, 0x65, 0x71, 0x75,
  0x65, 0x6e, 0x74, 0x69, 0x61, 0x6c, 0x2f, 0x64, 0x65, 0x6e, 0x73, 0x65,
  0x2f, 0x4d, 0x61, 0x74, 0x4d, 0x75, 0x6c, 0x00, 0x38, 0xfe, 0xff, 0xff,
  0x2e, 0xff, 0xff, 0xff, 0x04, 0x00, 0x00, 0x00, 0x08, 0x00, 0x00, 0x00,
  0xff, 0xff, 0xff, 0xff, 0x70, 0x00, 0x00, 0x00, 0x00, 0x00, 0x0e, 0x00,
  0x18, 0x00, 0x08, 0x00, 0x07, 0x00, 0x0c, 0x00, 0x10, 0x00, 0x14, 0x00,
  0x0e, 0x00, 0x00, 0x00, 0x00, 0x00, 0x00, 0x02, 0x10, 0x00, 0x00, 0x00,
  0x04, 0x00, 0x00, 0x00, 0x10, 0x00, 0x00, 0x00, 0x2c, 0x00, 0x00, 0x00,
  0x01, 0x00, 0x00, 0x00, 0x02, 0x00, 0x00, 0x00, 0x18, 0x00, 0x00, 0x00,
  0x73, 0x65, 0x71, 0x75, 0x65, 0x6e, 0x74, 0x69, 0x61, 0x6c, 0x2f, 0x66,
  0x6c, 0x61, 0x74, 0x74, 0x65, 0x6e, 0x2f, 0x43, 0x6f, 0x6e, 0x73, 0x74,
  0x00, 0x00, 0x00, 0x00, 0xa0, 0xfe, 0xff, 0xff, 0x96, 0xff, 0xff, 0xff,
  0x04, 0x00, 0x00, 0x00, 0x0c, 0x00, 0x00, 0x00, 0x12, 0x75, 0x2f, 0x40,
  0xfd, 0xcb, 0x0f, 0xc0, 0x99, 0x66, 0xeb, 0xbf, 0x0a, 0xff, 0xff, 0xff,
  0x10, 0x00, 0x00, 0x00, 0x03, 0x00, 0x00, 0x00, 0x10, 0x00, 0x00, 0x00,
  0x3c, 0x00, 0x00, 0x00, 0x01, 0x00, 0x00, 0x00, 0x03, 0x00, 0x00, 0x00,
  0x29, 0x00, 0x00, 0x00, 0x73, 0x65, 0x71, 0x75, 0x65, 0x6e, 0x74, 0x69,
  0x61, 0x6c, 0x2f, 0x64, 0x65, 0x6e, 0x73, 0x65, 0x5f, 0x31, 0x2f, 0x42,
  0x69, 0x61, 0x73, 0x41, 0x64, 0x64, 0x2f, 0x52, 0x65, 0x61, 0x64, 0x56,
  0x61, 0x72, 0x69, 0x61, 0x62, 0x6c, 0x65, 0x4f, 0x70, 0x00, 0x00, 0x00,
  0x60, 0xff, 0xff, 0xff, 0x00, 0x00, 0x06, 0x00, 0x08, 0x00, 0x04, 0x00,
  0x06, 0x00, 0x00, 0x00, 0x04, 0x00, 0x00, 0x00, 0x40, 0x00, 0x00, 0x00,
  0xba, 0x77, 0x82, 0x3f, 0xca, 0x6c, 0x53, 0x40, 0xee, 0x2c, 0x0a, 0x40,
  0x37, 0xfa, 0x63, 0xbe, 0x40, 0x0f, 0x38, 0xbe, 0xc0, 0xf9, 0x4a, 0x40,
  0x8a, 0x24, 0x98, 0xbf, 0xd6, 0x4f, 0xdd, 0x3e, 0x2f, 0x99, 0x5d, 0xbe,
  0xd9, 0xc2, 0x69, 0xbe, 0x10, 0x8d, 0x75, 0x3f, 0x4e, 0x7e, 0x1a, 0xbe,
  0x6a, 0x1a, 0x24, 0xbf, 0xfa, 0xa9, 0xaf, 0xbd, 0x62, 0x4b, 0x58, 0xbf,
  0x9d, 0xc0, 0x21, 0xbf, 0xae, 0xff, 0xff, 0xff, 0x10, 0x00, 0x00, 0x00,
  0x02, 0x00, 0x00, 0x00, 0x10, 0x00, 0x00, 0x00, 0x3c, 0x00, 0x00, 0x00,
  0x01, 0x00, 0x00, 0x00, 0x10, 0x00, 0x00, 0x00, 0x27, 0x00, 0x00, 0x00,
  0x73, 0x65, 0x71, 0x75, 0x65, 0x6e, 0x74, 0x69, 0x61, 0x6c, 0x2f, 0x64,
  0x65, 0x6e, 0x73, 0x65, 0x2f, 0x42, 0x69, 0x61, 0x73, 0x41, 0x64, 0x64,
  0x2f, 0x52, 0x65, 0x61, 0x64, 0x56, 0x61, 0x72, 0x69, 0x61, 0x62, 0x6c,
  0x65, 0x4f, 0x70, 0x00, 0x04, 0x00, 0x06, 0x00, 0x04, 0x00, 0x00, 0x00,
  0x00, 0x00, 0x0e, 0x00, 0x14, 0x00, 0x04, 0x00, 0x00, 0x00, 0x08, 0x00,
  0x0c, 0x00, 0x10, 0x00, 0x0e, 0x00, 0x00, 0x00, 0x10, 0x00, 0x00, 0x00,
  0x01, 0x00, 0x00, 0x00, 0x1c, 0x00, 0x00, 0x00, 0x2c, 0x00, 0x00, 0x00,
  0x04, 0x00, 0x00, 0x00, 0x01, 0x00, 0x00, 0x00, 0x40, 0x00, 0x00, 0x00,
  0x03, 0x00, 0x00, 0x00, 0x01, 0x00, 0x00, 0x00, 0x0c, 0x00, 0x00, 0x00,
  0x63, 0x6f, 0x6e, 0x76, 0x32, 0x64, 0x5f, 0x69, 0x6e, 0x70, 0x75, 0x74,
  0x00, 0x00, 0x00, 0x00, 0xfc, 0xff, 0xff, 0xff, 0x04, 0x00, 0x04, 0x00,
  0x04, 0x00, 0x00, 0x00

};


unsigned int model_tflite_len = 12316;// Fill the int in `src/model.cc` here